#include "magic_wand_model_data.h"


// We need to keep the data array aligned on some architectures.

#ifdef __has_attribute

#define HAVE_ATTRIBUTE(x) __has_attribute(x)

#else

#define HAVE_ATTRIBUTE(x) 0

#endif

#if HAVE_ATTRIBUTE(aligned) || (defined(__GNUC__) && !defined(__clang__))

#define DATA_ALIGN_ATTRIBUTE __attribute__((aligned(4)))

#else

#define DATA_ALIGN_ATTRIBUTE

#endif


const unsigned char g_magic_wand_model_data[] DATA_ALIGN_ATTRIBUTE = {
  0x08, 0x00, 0x00, 0x00, 0x54, 0x46, 0x4c, 0x33, 0x62, 0xff, 0xff, 0xff,
  0x03, 0x00, 0x00, 0x00, 0x10, 0x00, 0x00, 0x00, 0x24, 0x00, 0x00, 0x00,
  0x78, 0x00, 0x00, 0x00, 0x24, 0x00, 0x00, 0x00, 0x05, 0x00, 0x00, 0x00,
  0x78, 0x05, 0x00, 0x00, 0xb0, 0x04, 0x00, 0x00, 0xe0, 0x02, 0x00, 0x00,
  0x60, 0x02, 0x00, 0x00, 0x54, 0x01, 0x00, 0x00, 0x01, 0x00, 0x00, 0x00,
  0x78, 0x00, 0x00, 0x00, 0x13, 0x00, 0x00, 0x00, 0xd4, 0x2f, 0x00, 0x00,
  0xd0, 0x2f, 0x00, 0x00, 0xdc, 0x2e, 0x00, 0x00, 0x68, 0x2e, 0x00, 0x00,
  0xfc, 0x2d, 0x00, 0x00, 0xac, 0x11, 0x00, 0x00, 0x98, 0x10, 0x00, 0x00,
  0xbc, 0x0e, 0x00, 0x00, 0x60, 0x06, 0x00, 0x00, 0xfc, 0x05, 0x00, 0x00,
  0x78, 0x05, 0x00, 0x00, 0xa8, 0x2f, 0x00, 0x00, 0xa4, 0x2f, 0x00, 0x00,
  0xa0, 0x2f, 0x00, 0x00, 0x9c, 0x2f, 0x00, 0x00, 0x98, 0x2f, 0x00, 0x00,
  0x94, 0x2f, 0x00, 0x00, 0x90, 0x2f, 0x00, 0x00, 0x8c, 0x2f, 0x00, 0x00,
  0x0f, 0x00, 0x00, 0x00, 0x4d, 0x4c, 0x49, 0x52, 0x20, 0x43, 0x6f, 0x6e,
  0x76, 0x65, 0x72, 0x74, 0x65, 0x64, 0x2e, 0x00, 0x00, 0x00, 0x0e, 0x00,
  0x18, 0x00, 0x04, 0x00, 0x08, 0x00, 0x0c, 0x00, 0x10, 0x00, 0x14, 0x00,
  0x0e, 0x00, 0x00, 0x00, 0x14, 0x00, 0x00, 0x00, 0x5c, 0x00, 0x00, 0x00,
  0x60, 0x00, 0x00, 0x00, 0x64, 0x00, 0x00, 0x00, 0x84, 0x00, 0x00, 0x00,
  0x12, 0x00, 0x00, 0x00, 0x04, 0x2f, 0x00, 0x00, 0xa0, 0x2e, 0x00, 0x00,
  0xf8, 0x2d, 0x00, 0x00, 0x98, 0x2d, 0x00, 0x00, 0x30, 0x2d, 0x00, 0x00,
  0xdc, 0x10, 0x00, 0x00, 0xc0, 0x0f, 0x00, 0x00, 0xe4, 0x0d, 0x00, 0x00,
  0xa0, 0x05, 0x00, 0x00, 0x3c, 0x05, 0x00, 0x00, 0xb0, 0x04, 0x00, 0x00,
  0xe8, 0x03, 0x00, 0x00, 0x38, 0x03, 0x00, 0x00, 0xa4, 0x02, 0x00, 0x00,
  0x10, 0x02, 0x00, 0x00, 0x90, 0x01, 0x00, 0x00, 0xfc, 0x00, 0x00, 0x00,
  0x80, 0x00, 0x00, 0x00, 0x01, 0x00, 0x00, 0x00, 0x00, 0x00, 0x00, 0x00,
  0x01, 0x00, 0x00, 0x00, 0x11, 0x00, 0x00, 0x00, 0x08, 0x00, 0x00, 0x00,
  0x1c, 0x04, 0x00, 0x00, 0x58, 0x03, 0x00, 0x00, 0xc8, 0x02, 0x00, 0x00,
  0x24, 0x02, 0x00, 0x00, 0xac, 0x01, 0x00, 0x00, 0x10, 0x01, 0x00, 0x00,
  0x94, 0x00, 0x00, 0x00, 0x10, 0x00, 0x00, 0x00, 0x04, 0x00, 0x00, 0x00,
  0x6d, 0x61, 0x69, 0x6e, 0x00, 0x00, 0x00, 0x00, 0x8e, 0xff, 0xff, 0xff,
  0x00, 0x00, 0x00, 0x09, 0x04, 0x00, 0x00, 0x00, 0x1c, 0x00, 0x00, 0x00,
  0x10, 0x00, 0x00, 0x00, 0x04, 0x00, 0x00, 0x00, 0x4e, 0xd2, 0xff, 0xff,
  0x00, 0x00, 0x80, 0x3f, 0x01, 0x00, 0x00, 0x00, 0x11, 0x00, 0x00, 0x00,
  0x01, 0x00, 0x00, 0x00, 0x10, 0x00, 0x00, 0x00, 0xf6, 0xfb, 0xff, 0xff,
  0x00, 0x00, 0x00, 0x19, 0x01, 0x00, 0x00, 0x00, 0xce, 0xd1, 0xff, 0xff,
  0x10, 0x00, 0x00, 0x00, 0x12, 0x00, 0x00, 0x00, 0x14, 0x00, 0x00, 0x00,
  0x20, 0x00, 0x00, 0x00, 0x02, 0x00, 0x00, 0x00, 0x01, 0x00, 0x00, 0x00,
  0x03, 0x00, 0x00, 0x00, 0x08, 0x00, 0x00, 0x00, 0x49, 0x64, 0x65, 0x6e,
  0x74, 0x69, 0x74, 0x79, 0x00, 0x00, 0x00, 0x00, 0x08, 0xd2, 0xff, 0xff,
  0x00, 0x00, 0x0e, 0x00, 0x18, 0x00, 0x08, 0x00, 0x0c, 0x00, 0x10, 0x00,
  0x07, 0x00, 0x14, 0x00, 0x0e, 0x00, 0x00, 0x00, 0x00, 0x00, 0x00, 0x08,
  0x03, 0x00, 0x00, 0x00, 0x18, 0x00, 0x00, 0x00, 0x0c, 0x00, 0x00, 0x00,
  0x04, 0x00, 0x00, 0x00, 0xdc, 0xd1, 0xff, 0xff, 0x01, 0x00, 0x00, 0x00,
  0x10, 0x00, 0x00, 0x00, 0x03, 0x00, 0x00, 0x00, 0x0f, 0x00, 0x00, 0x00,
  0x05, 0x00, 0x00, 0x00, 0x02, 0x00, 0x00, 0x00, 0x46, 0xd2, 0xff, 0xff,
  0x10, 0x00, 0x00, 0x00, 0x11, 0x00, 0x00, 0x00, 0x14, 0x00, 0x00, 0x00,
  0x30, 0x00, 0x00, 0x00, 0x02, 0x00, 0x00, 0x00, 0x01, 0x00, 0x00, 0x00,
  0x03, 0x00, 0x00, 0x00, 0x1a, 0x00, 0x00, 0x00, 0x73, 0x65, 0x71, 0x75,
  0x65, 0x6e, 0x74, 0x69, 0x61, 0x6c, 0x2f, 0x64, 0x65, 0x6e, 0x73, 0x65,
  0x5f, 0x31, 0x2f, 0x42, 0x69, 0x61, 0x73, 0x41, 0x64, 0x64, 0x00, 0x00,
  0x38, 0xd2, 0xff, 0xff, 0xd6, 0xfd, 0xff, 0xff, 0x00, 0x00, 0x00, 0x08,
  0x03, 0x00, 0x00, 0x00, 0x24, 0x00, 0x00, 0x00, 0x18, 0x00, 0x00, 0x00,
  0x0c, 0x00, 0x00, 0x00, 0x00, 0x00, 0x06, 0x00, 0x08, 0x00, 0x07, 0x00,
  0x06, 0x00, 0x00, 0x00, 0x00, 0x00, 0x00, 0x01, 0x01, 0x00, 0x00, 0x00,
  0x0f, 0x00, 0x00, 0x00, 0x03, 0x00, 0x00, 0x00, 0x0e, 0x00, 0x00, 0x00,
  0x04, 0x00, 0x00, 0x00, 0x01, 0x00, 0x00, 0x00, 0xfe, 0xfc, 0xff, 0xff,
  0x00, 0x00, 0x00, 0x09, 0x01, 0x00, 0x00, 0x00, 0xd6, 0xd2, 0xff, 0xff,
  0x10, 0x00, 0x00, 0x00, 0x10, 0x00, 0x00, 0x00, 0x14, 0x00, 0x00, 0x00,
  0x2c, 0x00, 0x00, 0x00, 0x02, 0x00, 0x00, 0x00, 0x01, 0x00, 0x00, 0x00,
  0x10, 0x00, 0x00, 0x00, 0x15, 0x00, 0x00, 0x00, 0x73, 0x65, 0x71, 0x75,
  0x65, 0x6e, 0x74, 0x69, 0x61, 0x6c, 0x2f, 0x64, 0x65, 0x6e, 0x73, 0x65,
  0x2f, 0x52, 0x65, 0x6c, 0x75, 0x00, 0x00, 0x00, 0x1c, 0xd3, 0xff, 0xff,
  0x00, 0x00, 0x0a, 0x00, 0x10, 0x00, 0x04, 0x00, 0x08, 0x00, 0x0c, 0x00,
  0x0a, 0x00, 0x00, 0x00, 0x02, 0x00, 0x00, 0x00, 0x10, 0x00, 0x00, 0x00,
  0x04, 0x00, 0x00, 0x00, 0x01, 0x00, 0x00, 0x00, 0x0e, 0x00, 0x00, 0x00,
  0x02, 0x00, 0x00, 0x00, 0x0d, 0x00, 0x00, 0x00, 0x03, 0x00, 0x00, 0x00,
  0x7a, 0xfd, 0xff, 0xff, 0x00, 0x00, 0x00, 0x16, 0x01, 0x00, 0x00, 0x00,
  0x52, 0xd3, 0xff, 0xff, 0x10, 0x00, 0x00, 0x00, 0x0f, 0x00, 0x00, 0x00,
  0x14, 0x00, 0x00, 0x00, 0x30, 0x00, 0x00, 0x00, 0x02, 0x00, 0x00, 0x00,
  0x01, 0x00, 0x00, 0x00, 0x70, 0x00, 0x00, 0x00, 0x1a, 0x00, 0x00, 0x00,
  0x73, 0x65, 0x71, 0x75, 0x65, 0x6e, 0x74, 0x69, 0x61, 0x6c, 0x2f, 0x66,
  0x6c, 0x61, 0x74, 0x74, 0x65, 0x6e, 0x2f, 0x52, 0x65, 0x73, 0x68, 0x61,
  0x70, 0x65, 0x00, 0x00, 0x44, 0xd3, 0xff, 0xff, 0xe2, 0xfe, 0xff, 0xff,
  0x00, 0x00, 0x00, 0x05, 0x01, 0x00, 0x00, 0x00, 0x38, 0x00, 0x00, 0x00,
  0x2c, 0x00, 0x00, 0x00, 0x14, 0x00, 0x00, 0x00, 0x00, 0x00, 0x0e, 0x00,
  0x14, 0x00, 0x00, 0x00, 0x10, 0x00, 0x0c, 0x00, 0x08, 0x00, 0x04, 0x00,
  0x0e, 0x00, 0x00, 0x00, 0x03, 0x00, 0x00, 0x00, 0x01, 0x00, 0x00, 0x00,
  0x03, 0x00, 0x00, 0x00, 0x01, 0x00, 0x00, 0x00, 0x01, 0x00, 0x00, 0x00,
  0x0d, 0x00, 0x00, 0x00, 0x01, 0x00, 0x00, 0x00, 0x0c, 0x00, 0x00, 0x00,
  0xe2, 0xd3, 0xff, 0xff, 0x10, 0x00, 0x00, 0x00, 0x0e, 0x00, 0x00, 0x00,
  0x1c, 0x00, 0x00, 0x00, 0x40, 0x00, 0x00, 0x00, 0x04, 0x00, 0x00, 0x00,
  0x01, 0x00, 0x00, 0x00, 0x07, 0x00, 0x00, 0x00, 0x01, 0x00, 0x00, 0x00,
  0x10, 0x00, 0x00, 0x00, 0x22, 0x00, 0x00, 0x00, 0x73, 0x65, 0x71, 0x75,
  0x65, 0x6e, 0x74, 0x69, 0x61, 0x6c, 0x2f, 0x6d, 0x61, 0x78, 0x5f, 0x70,
  0x6f, 0x6f, 0x6c, 0x69, 0x6e, 0x67, 0x32, 0x64, 0x5f, 0x31, 0x2f, 0x4d,
  0x61, 0x78, 0x50, 0x6f, 0x6f, 0x6c, 0x00, 0x00, 0xe4, 0xd3, 0xff, 0xff,
  0xc2, 0xfe, 0xff, 0xff, 0x00, 0x00, 0x00, 0x01, 0x24, 0x00, 0x00, 0x00,
  0x18, 0x00, 0x00, 0x00, 0x04, 0x00, 0x00, 0x00, 0xb4, 0xfe, 0xff, 0xff,
  0x01, 0x00, 0x00, 0x00, 0x01, 0x00, 0x00, 0x00, 0x00, 0x00, 0x00, 0x01,
  0x01, 0x00, 0x00, 0x00, 0x0c, 0x00, 0x00, 0x00, 0x03, 0x00, 0x00, 0x00,
  0x0b, 0x00, 0x00, 0x00, 0x07, 0x00, 0x00, 0x00, 0x09, 0x00, 0x00, 0x00,
  0x72, 0xd4, 0xff, 0xff, 0x10, 0x00, 0x00, 0x00, 0x0d, 0x00, 0x00, 0x00,
  0x1c, 0x00, 0x00, 0x00, 0x2c, 0x00, 0x00, 0x00, 0x04, 0x00, 0x00, 0x00,
  0x01, 0x00, 0x00, 0x00, 0x15, 0x00, 0x00, 0x00, 0x01, 0x00, 0x00, 0x00,
  0x10, 0x00, 0x00, 0x00, 0x0c, 0x00, 0x00, 0x00, 0x74, 0x66, 0x6c, 0x2e,
  0x63, 0x6f, 0x6e, 0x76, 0x5f, 0x32, 0x64, 0x31, 0x00, 0x00, 0x00, 0x00,
  0xb8, 0xd4, 0xff, 0xff, 0x00, 0x00, 0x0e, 0x00, 0x1a, 0x00, 0x08, 0x00,
  0x0c, 0x00, 0x10, 0x00, 0x07, 0x00, 0x14, 0x00, 0x0e, 0x00, 0x00, 0x00,
  0x00, 0x00, 0x00, 0x05, 0x01, 0x00, 0x00, 0x00, 0x3c, 0x00, 0x00, 0x00,
  0x30, 0x00, 0x00, 0x00, 0x14, 0x00, 0x00, 0x00, 0x00, 0x00, 0x0e, 0x00,
  0x18, 0x00, 0x17, 0x00, 0x10, 0x00, 0x0c, 0x00, 0x08, 0x00, 0x04, 0x00,
  0x0e, 0x00, 0x00, 0x00, 0x03, 0x00, 0x00, 0x00, 0x03, 0x00, 0x00, 0x00,
  0x03, 0x00, 0x00, 0x00, 0x03, 0x00, 0x00, 0x00, 0x00, 0x00, 0x00, 0x01,
  0x01, 0x00, 0x00, 0x00, 0x0b, 0x00, 0x00, 0x00, 0x01, 0x00, 0x00, 0x00,
  0x0a, 0x00, 0x00, 0x00, 0x46, 0xff, 0xff, 0xff, 0x00, 0x00, 0x00, 0x11,
  0x01, 0x00, 0x00, 0x00, 0x1e, 0xd5, 0xff, 0xff, 0x10, 0x00, 0x00, 0x00,
  0x0c, 0x00, 0x00, 0x00, 0x1c, 0x00, 0x00, 0x00, 0x40, 0x00, 0x00, 0x00,
  0x04, 0x00, 0x00, 0x00, 0x01, 0x00, 0x00, 0x00, 0x15, 0x00, 0x00, 0x00,
  0x01, 0x00, 0x00, 0x00, 0x08, 0x00, 0x00, 0x00, 0x20, 0x00, 0x00, 0x00,
  0x73, 0x65, 0x71, 0x75, 0x65, 0x6e, 0x74, 0x69, 0x61, 0x6c, 0x2f, 0x6d,
  0x61, 0x78, 0x5f, 0x70, 0x6f, 0x6f, 0x6c, 0x69, 0x6e, 0x67, 0x32, 0x64,
  0x2f, 0x4d, 0x61, 0x78, 0x50, 0x6f, 0x6f, 0x6c, 0x00, 0x00, 0x00, 0x00,
  0x78, 0xd5, 0xff, 0xff, 0x00, 0x00, 0x0e, 0x00, 0x14, 0x00, 0x00, 0x00,
  0x08, 0x00, 0x0c, 0x00, 0x07, 0x00, 0x10, 0x00, 0x0e, 0x00, 0x00, 0x00,
  0x00, 0x00, 0x00, 0x01, 0x30, 0x00, 0x00, 0x00, 0x24, 0x00, 0x00, 0x00,
  0x10, 0x00, 0x00, 0x00, 0x0c, 0x00, 0x10, 0x00, 0x00, 0x00, 0x04, 0x00,
  0x08, 0x00, 0x0f, 0x00, 0x0c, 0x00, 0x00, 0x00, 0x01, 0x00, 0x00, 0x00,
  0x01, 0x00, 0x00, 0x00, 0x00, 0x00, 0x00, 0x01, 0x01, 0x00, 0x00, 0x00,
  0x0a, 0x00, 0x00, 0x00, 0x03, 0x00, 0x00, 0x00, 0x00, 0x00, 0x00, 0x00,
  0x06, 0x00, 0x00, 0x00, 0x08, 0x00, 0x00, 0x00, 0x00, 0x00, 0x0a, 0x00,
  0x0c, 0x00, 0x07, 0x00, 0x00, 0x00, 0x08, 0x00, 0x0a, 0x00, 0x00, 0x00,
  0x00, 0x00, 0x00, 0x03, 0x01, 0x00, 0x00, 0x00, 0xe2, 0xd5, 0xff, 0xff,
  0x10, 0x00, 0x00, 0x00, 0x0b, 0x00, 0x00, 0x00, 0x1c, 0x00, 0x00, 0x00,
  0x28, 0x00, 0x00, 0x00, 0x04, 0x00, 0x00, 0x00, 0x01, 0x00, 0x00, 0x00,
  0x40, 0x00, 0x00, 0x00, 0x03, 0x00, 0x00, 0x00, 0x08, 0x00, 0x00, 0x00,
  0x0b, 0x00, 0x00, 0x00, 0x74, 0x66, 0x6c, 0x2e, 0x63, 0x6f, 0x6e, 0x76,
  0x5f, 0x32, 0x64, 0x00, 0xcc, 0xd5, 0xff, 0xff, 0xc2, 0xd6, 0xff, 0xff,
  0x04, 0x00, 0x00, 0x00, 0x40, 0x00, 0x00, 0x00, 0x2c, 0x23, 0x97, 0x3e,
  0xb4, 0x93, 0x19, 0xbe, 0x2d, 0xb0, 0x4f, 0xbf, 0xea, 0x77, 0x84, 0xbf,
  0x40, 0x79, 0xd3, 0xbf, 0xcc, 0xf2, 0x26, 0x40, 0xef, 0x3a, 0x9f, 0xbe,
  0xe2, 0xb2, 0x4b, 0x40, 0x21, 0x5b, 0x9b, 0xbf, 0x37, 0xc8, 0xb1, 0xbf,
  0x85, 0x29, 0xbd, 0x3e, 0x41, 0x26, 0xe9, 0xbe, 0xef, 0x30, 0xb0, 0xbf,
  0x36, 0xd9, 0xa1, 0x3f, 0xb4, 0x14, 0xbd, 0x3f, 0x09, 0xc3, 0x68, 0xbe,
  0x6a, 0xd6, 0xff, 0xff, 0x10, 0x00, 0x00, 0x00, 0x0a, 0x00, 0x00, 0x00,
  0x10, 0x00, 0x00, 0x00, 0x20, 0x00, 0x00, 0x00, 0x01, 0x00, 0x00, 0x00,
  0x10, 0x00, 0x00, 0x00, 0x0d, 0x00, 0x00, 0x00, 0x73, 0x74, 0x64, 0x2e,
  0x63, 0x6f, 0x6e, 0x73, 0x74, 0x61, 0x6e, 0x74, 0x31, 0x00, 0x00, 0x00,
  0x4c, 0xd6, 0xff, 0xff, 0x42, 0xd7, 0xff, 0xff, 0x04, 0x00, 0x00, 0x00,
  0x20, 0x00, 0x00, 0x00, 0xd8, 0x2f, 0xec, 0xbd, 0x51, 0x3f, 0x83, 0xbf,
  0xf0, 0x26, 0xee, 0xbf, 0x25, 0x5d, 0x4b, 0xbf, 0xd8, 0xf1, 0x1c, 0xc0,
  0xce, 0x14, 0xb7, 0x3e, 0x43, 0x35, 0x16, 0x3e, 0x3c, 0xfb, 0x9d, 0xbf,
  0xca, 0xd6, 0xff, 0xff, 0x10, 0x00, 0x00, 0x00, 0x09, 0x00, 0x00, 0x00,
  0x10, 0x00, 0x00, 0x00, 0x20, 0x00, 0x00, 0x00, 0x01, 0x00, 0x00, 0x00,
  0x08, 0x00, 0x00, 0x00, 0x0c, 0x00, 0x00, 0x00, 0x73, 0x74, 0x64, 0x2e,
  0x63, 0x6f, 0x6e, 0x73, 0x74, 0x61, 0x6e, 0x74, 0x00, 0x00, 0x00, 0x00,
  0xac, 0xd6, 0xff, 0xff, 0xa2, 0xd7, 0xff, 0xff, 0x04, 0x00, 0x00, 0x00,
  0x00, 0x08, 0x00, 0x00, 0x6c, 0x55, 0x88, 0x3d, 0x5f, 0x46, 0x8c, 0xbd,
  0x89, 0xdf, 0xc2, 0xbd, 0x6a, 0xed, 0x68, 0xbd, 0x16, 0x91, 0xd3, 0xbd,
  0xa2, 0xb7, 0x78, 0xbc, 0x4c, 0x72, 0xac, 0xbc, 0x63, 0x0b, 0xc9, 0xbd,
  0xfe, 0xd3, 0xe8, 0x3d, 0xf1, 0x92, 0xb3, 0x3c, 0x10, 0x5b, 0xe9, 0x3c,
  0x73, 0x87, 0x8c, 0xbd, 0x87, 0x39, 0x0c, 0xbd, 0xc7, 0x52, 0xc7, 0x3e,
  0xce, 0x00, 0x5a, 0xbd, 0x37, 0xa8, 0xa2, 0xbd, 0xf6, 0x05, 0x88, 0xbd,
  0x00, 0x69, 0xcb, 0xbd, 0x5a, 0x69, 0x2b, 0x3f, 0x14, 0xad, 0xf3, 0xbd,
  0x85, 0x57, 0xb6, 0x3e, 0x87, 0x9d, 0x14, 0xbe, 0x9a, 0xc7, 0x58, 0xbd,
  0x5b, 0xb6, 0x08, 0xbe, 0x7b, 0xe2, 0x41, 0x3e, 0xd7, 0x0e, 0x65, 0xbd,
  0x47, 0x5d, 0xdc, 0xbd, 0x05, 0x81, 0x55, 0x3c, 0xe2, 0x02, 0xd4, 0xbd,
  0xea, 0x9f, 0x26, 0x3e, 0xab, 0xdc, 0xa0, 0xbb, 0x06, 0xcd, 0xf0, 0xbd,
  0x4d, 0x02, 0x9e, 0xbe, 0x50, 0xfe, 0x6a, 0xbe, 0xd3, 0x59, 0xe9, 0xbd,
  0x7d, 0x2f, 0xfa, 0x3d, 0x79, 0xb1, 0x9e, 0xbe, 0x80, 0xc6, 0x27, 0xbe,
  0x16, 0x6e, 0xe1, 0x3c, 0xeb, 0xb9, 0x4e, 0xbe, 0x74, 0xfb, 0xb9, 0x3c,
  0xcc, 0xd1, 0x5d, 0xbe, 0x1d, 0xec, 0x6c, 0x3e, 0xe0, 0x76, 0x77, 0x3c,
  0x97, 0x81, 0x72, 0x3e, 0x62, 0xcd, 0xa6, 0xbe, 0x21, 0xea, 0x20, 0xbc,
  0x1c, 0xdb, 0xf7, 0xbe, 0xfc, 0xe0, 0xb0, 0xbe, 0x91, 0x4a, 0xcd, 0xbd,
  0xff, 0x23, 0x07, 0xbe, 0xd9, 0x0f, 0xbd, 0xbe, 0x03, 0xdb, 0xa2, 0xbd,
  0x88, 0x7b, 0x48, 0x3e, 0x1a, 0xdb, 0xa3, 0xbd, 0xbc, 0x18, 0xb5, 0x3d,
  0x1a, 0xf0, 0xf0, 0xbc, 0x44, 0x7a, 0x0a, 0xbe, 0x79, 0x0f, 0x16, 0xbd,
  0xb5, 0x69, 0xf9, 0xbe, 0x04, 0xab, 0xe4, 0x3c, 0xa8, 0x4c, 0x15, 0x3d,
  0x8e, 0x6a, 0xa2, 0xbd, 0x32, 0xc3, 0xff, 0x3d, 0x59, 0x27, 0x02, 0xbf,
  0x96, 0x86, 0xd9, 0xbe, 0x06, 0x06, 0x30, 0xbe, 0x62, 0xd4, 0x9c, 0xbd,
  0xeb, 0x2a, 0x26, 0xbe, 0x12, 0xe8, 0xdc, 0xbe, 0x38, 0x2e, 0x02, 0xbe,
  0xa2, 0xe4, 0xf6, 0xbe, 0xc6, 0xb7, 0x6f, 0xbe, 0xa4, 0x6d, 0xbb, 0xbe,
  0xfd, 0xbb, 0x3d, 0x3e, 0x49, 0xec, 0xf2, 0xbd, 0x09, 0xe3, 0x5f, 0x3e,
  0x4b, 0x8b, 0x21, 0x3e, 0xf7, 0x11, 0x51, 0xbe, 0x87, 0xfd, 0x63, 0xbf,
  0xb2, 0x45, 0xbe, 0x3e, 0x68, 0x34, 0x00, 0xbf, 0x85, 0x45, 0xe7, 0x3b,
  0xb7, 0xba, 0x32, 0x3e, 0x19, 0xfd, 0x8b, 0xbb, 0x29, 0xc1, 0x3a, 0x3e,
  0x0f, 0x05, 0xd5, 0xbd, 0x18, 0x1d, 0x6e, 0xbe, 0x89, 0xd5, 0x25, 0x3e,
  0x45, 0xdc, 0x66, 0xbd, 0x82, 0xba, 0x40, 0x3d, 0x79, 0x12, 0x57, 0x3e,
  0x97, 0x74, 0xec, 0xbd, 0x2a, 0x5e, 0x8e, 0x3e, 0xf9, 0x3f, 0xe1, 0xbd,
  0x5d, 0x57, 0xfd, 0xbc, 0xc5, 0x31, 0xbc, 0xbe, 0xa2, 0x11, 0x49, 0xbe,
  0x4c, 0xe6, 0xae, 0xbe, 0x6c, 0xf2, 0xf1, 0xbc, 0xba, 0x8e, 0x77, 0xbe,
  0x0f, 0xa0, 0xd6, 0xbe, 0x67, 0x07, 0x5a, 0xbd, 0x0b, 0xc1, 0x69, 0xbe,
  0xea, 0x09, 0xe6, 0xbe, 0xef, 0xc2, 0xd7, 0xbe, 0xdf, 0xb7, 0xae, 0x3e,
  0xa7, 0x4b, 0xbe, 0xbd, 0xd0, 0xd1, 0xe8, 0xbc, 0xb3, 0x90, 0x27, 0xbf,
  0x1a, 0xbd, 0xcb, 0xbd, 0x4c, 0xb6, 0x16, 0xbf, 0x67, 0x91, 0x86, 0xbe,
  0x2a, 0xc2, 0x5c, 0xbf, 0xaf, 0xc1, 0x93, 0x3e, 0x65, 0xb5, 0x92, 0x3e,
  0xda, 0x76, 0x6c, 0x3e, 0x05, 0x1c, 0x25, 0x3e, 0x2e, 0xca, 0x1b, 0xbc,
  0xa0, 0xc4, 0x54, 0xbf, 0x01, 0x71, 0x1d, 0x3e, 0xb0, 0x91, 0x59, 0x3d,
  0x63, 0x3b, 0xc7, 0x3d, 0x9f, 0x1e, 0xae, 0xbc, 0x1f, 0xcb, 0xf2, 0xbd,
  0xc3, 0xeb, 0x7c, 0x3d, 0xef, 0xc2, 0x77, 0xbd, 0xe4, 0x98, 0xe8, 0x3c,
  0x17, 0x74, 0x02, 0xbe, 0xea, 0x85, 0xce, 0xbd, 0x6b, 0x8c, 0x03, 0xbf,
  0xc8, 0x52, 0x72, 0xbe, 0xa2, 0x26, 0x02, 0xbf, 0x04, 0x23, 0x84, 0xbe,
  0x08, 0xec, 0x5d, 0xbe, 0x98, 0x4d, 0x9c, 0xbd, 0xae, 0x4f, 0x3d, 0x3d,
  0x18, 0x03, 0x35, 0x3e, 0x46, 0x9a, 0x8f, 0x3d, 0x2a, 0x63, 0x64, 0xbe,
  0x16, 0x41, 0x2c, 0x3d, 0x06, 0x63, 0xd4, 0x3e, 0x3f, 0x2f, 0x2b, 0xbe,
  0xa7, 0x7b, 0x40, 0x3e, 0xd6, 0xb0, 0x89, 0x3d, 0x31, 0x69, 0x95, 0x3d,
  0x7c, 0xfd, 0x9a, 0x3e, 0xf5, 0x93, 0x77, 0xbe, 0x5e, 0x14, 0x55, 0x3e,
  0x28, 0x93, 0x26, 0x3c, 0x2c, 0xf6, 0x8c, 0xbe, 0xda, 0xe8, 0x4a, 0x3d,
  0x64, 0x0c, 0x23, 0xbe, 0xb8, 0x85, 0xa0, 0xbd, 0x4f, 0x57, 0x8b, 0x3e,
  0x3c, 0xf9, 0x42, 0xbe, 0x2b, 0x28, 0x68, 0x3e, 0x6f, 0xf8, 0x64, 0xbe,
  0xd6, 0xb5, 0xec, 0xbd, 0x6c, 0xfe, 0x7f, 0xbc, 0xc9, 0x76, 0xaa, 0xbd,
  0xd4, 0x64, 0x03, 0xbe, 0xa8, 0x30, 0x48, 0xbe, 0xc4, 0x9c, 0x7c, 0x3e,
  0x54, 0x28, 0x5a, 0xbe, 0xed, 0x67, 0x6a, 0x3c, 0x71, 0x31, 0xd7, 0xbd,
  0x24, 0xb3, 0xea, 0xbc, 0x4a, 0x09, 0x36, 0x3c, 0xd2, 0xaa, 0xf1, 0x3b,
  0x37, 0xda, 0x74, 0xbe, 0xf4, 0xa4, 0xa0, 0xbe, 0x16, 0x70, 0xd4, 0xbd,
  0x83, 0x90, 0xd5, 0xbd, 0xdc, 0x2a, 0x4f, 0xbe, 0xe3, 0xbd, 0xc0, 0x3d,
  0x11, 0x66, 0x8b, 0x3e, 0x8e, 0x39, 0x8a, 0xbe, 0x74, 0x2a, 0xdc, 0xbe,
  0xce, 0xf8, 0xd4, 0xbd, 0x07, 0x23, 0x2a, 0xbe, 0xd8, 0x4c, 0x91, 0xbd,
  0xd9, 0x4b, 0x4d, 0x3c, 0xb5, 0xbe, 0xf7, 0xbe, 0xfd, 0xa3, 0x29, 0xbe,
  0x5b, 0xc9, 0xbb, 0xbe, 0xac, 0x3c, 0x37, 0xbe, 0x6c, 0xfe, 0x5e, 0xbe,
  0x9a, 0xb7, 0x2d, 0xbe, 0xe6, 0xa3, 0xb8, 0xba, 0x6f, 0xd0, 0x57, 0xbe,
  0xfd, 0x4b, 0xc1, 0xbe, 0xf7, 0xec, 0xb3, 0xbe, 0x97, 0x23, 0xee, 0xbe,
  0x1d, 0xf6, 0xf9, 0xbd, 0x13, 0xb8, 0xcb, 0xbd, 0x3c, 0xad, 0x64, 0xbc,
  0x30, 0xa0, 0x9e, 0xbe, 0xdc, 0xfb, 0x13, 0xbe, 0x6b, 0xaf, 0xb7, 0xbe,
  0x89, 0xc0, 0x07, 0xbf, 0xa4, 0x19, 0x37, 0xbf, 0x93, 0x2c, 0x86, 0x3e,
  0x01, 0x42, 0x46, 0xbe, 0x95, 0xc9, 0xf6, 0x3d, 0x91, 0x9d, 0xe3, 0xbe,
  0xcf, 0x1f, 0x2a, 0xbe, 0xcc, 0x2c, 0x65, 0xbf, 0xa2, 0x78, 0x27, 0x3d,
  0x43, 0xf7, 0x18, 0xbf, 0xdf, 0x90, 0xc4, 0x3e, 0x3d, 0xd5, 0x25, 0x3e,
  0xdf, 0xf6, 0xaf, 0xbd, 0x8b, 0xd3, 0x9b, 0x3e, 0x6b, 0x9e, 0x24, 0xbd,
  0x15, 0xf6, 0x6b, 0xbe, 0x98, 0xbc, 0x75, 0x3e, 0xcc, 0x75, 0xa8, 0xbd,
  0x3b, 0x7c, 0xf3, 0xbc, 0x4a, 0xb0, 0x16, 0x3e, 0x7f, 0x02, 0xe9, 0x3b,
  0x5d, 0x16, 0x13, 0x3e, 0x31, 0x05, 0x85, 0xbd, 0x00, 0xf6, 0x4d, 0x3e,
  0x33, 0xf5, 0xe2, 0xbd, 0x11, 0x60, 0xdb, 0xbe, 0xc5, 0x7e, 0xa4, 0xbe,
  0xa3, 0x65, 0x96, 0xbe, 0xb9, 0xea, 0x02, 0x3c, 0xa8, 0x26, 0x0a, 0x3e,
  0xd1, 0x08, 0x73, 0xbe, 0x7a, 0xe2, 0xa7, 0xbe, 0x4b, 0xc4, 0x1d, 0xbe,
  0xd5, 0x6c, 0xc7, 0xbe, 0x2b, 0x36, 0xc7, 0xbe, 0x44, 0xa1, 0xe8, 0xbd,
  0x31, 0x3b, 0x90, 0xbe, 0xcb, 0xae, 0x67, 0xbd, 0xca, 0x01, 0x86, 0xbe,
  0x06, 0x7d, 0xf5, 0xbe, 0x07, 0x6f, 0x76, 0xbd, 0x98, 0x66, 0x15, 0xbe,
  0x36, 0x51, 0x48, 0x3c, 0x94, 0xd1, 0x04, 0xbe, 0x67, 0x73, 0x9b, 0xbe,
  0x55, 0xc2, 0xf0, 0xbd, 0xbc, 0xa1, 0x31, 0xbe, 0x52, 0x3d, 0xa5, 0xbe,
  0x1e, 0x2f, 0x05, 0x3d, 0x40, 0x05, 0xdd, 0xbd, 0x06, 0xba, 0x5f, 0xbe,
  0x5b, 0x56, 0xa7, 0xbc, 0x85, 0xbc, 0x89, 0xbe, 0x88, 0x2f, 0xab, 0x3d,
  0xfd, 0xf6, 0x8d, 0xbe, 0xd8, 0x5f, 0x17, 0xbe, 0x91, 0x89, 0x4f, 0x3d,
  0x71, 0xe0, 0x8a, 0x3e, 0x3e, 0x2d, 0xfb, 0x3e, 0x1f, 0xc2, 0xb4, 0xbd,
  0x77, 0x0c, 0xc6, 0xbc, 0x32, 0xf1, 0x39, 0x3f, 0x17, 0x19, 0xce, 0xbd,
  0x8b, 0x8e, 0x41, 0xbd, 0x97, 0x09, 0x25, 0xbe, 0xb5, 0xa7, 0xd9, 0xbd,
  0xff, 0x05, 0xed, 0xbc, 0x09, 0x80, 0xe8, 0xbd, 0xd7, 0x33, 0xbe, 0x3d,
  0xf3, 0x8e, 0x26, 0xbe, 0xc1, 0x08, 0xb6, 0xbd, 0x1e, 0xec, 0x37, 0xbd,
  0x26, 0x6b, 0x79, 0xbd, 0x99, 0x20, 0x83, 0xbd, 0x9c, 0x80, 0xa9, 0x3c,
  0x5b, 0x1d, 0x2b, 0xbd, 0x89, 0xd4, 0x89, 0x3d, 0xdc, 0xee, 0x72, 0xbe,
  0xe5, 0xf8, 0x0f, 0xbc, 0x92, 0x91, 0x25, 0xbd, 0x9c, 0xad, 0xcf, 0xbd,
  0xa4, 0x20, 0x84, 0xbd, 0x21, 0xde, 0x78, 0xbe, 0x8e, 0xca, 0x7b, 0xbd,
  0xa9, 0x69, 0x19, 0xbe, 0x39, 0xce, 0x84, 0xbe, 0x3c, 0xf9, 0x65, 0xbc,
  0xc2, 0xaf, 0xb3, 0xba, 0x49, 0x3a, 0xf6, 0xbe, 0x95, 0xc3, 0x22, 0xbf,
  0xaa, 0xcf, 0xb6, 0x3e, 0x3c, 0x1a, 0x18, 0x3d, 0xb2, 0x27, 0xec, 0x3d,
  0x97, 0xfc, 0xd2, 0xbe, 0xd9, 0xce, 0x93, 0xbd, 0xc6, 0x57, 0x3a, 0xbf,
  0xff, 0x88, 0x97, 0xbe, 0x69, 0x6e, 0x50, 0xbf, 0x7b, 0xc7, 0x79, 0xbe,
  0xbc, 0xa1, 0xda, 0xbb, 0x44, 0x97, 0x72, 0x3e, 0x15, 0x23, 0xec, 0x3d,
  0x77, 0xe3, 0xc7, 0xbd, 0x34, 0x29, 0x0c, 0xbf, 0xc7, 0x9a, 0xc9, 0x3e,
  0x16, 0x20, 0x3f, 0xbe, 0x45, 0xf0, 0x4e, 0x3e, 0x51, 0xb6, 0x35, 0x3e,
  0x40, 0xd7, 0x0e, 0xbe, 0x56, 0x93, 0xbb, 0x3e, 0x2e, 0xaa, 0xb3, 0xbd,
  0x3f, 0xf6, 0xf8, 0xbd, 0x38, 0xc9, 0x57, 0xbd, 0x3c, 0xe9, 0x22, 0x3e,
  0xac, 0xa5, 0xbe, 0xbd, 0xdc, 0xde, 0x67, 0xbd, 0x8f, 0x44, 0x19, 0xbe,
  0x86, 0xa1, 0x34, 0xbe, 0x75, 0x90, 0xca, 0xbd, 0xa8, 0x00, 0x11, 0x3d,
  0xf0, 0x07, 0xcc, 0x3e, 0x15, 0x04, 0xb4, 0xbd, 0x40, 0xa2, 0x1a, 0xbe,
  0xca, 0x2b, 0x65, 0x3d, 0x52, 0x68, 0x04, 0xbe, 0xe4, 0x8a, 0x9d, 0xbd,
  0x84, 0x2c, 0x1c, 0xbd, 0x77, 0x50, 0x22, 0xbe, 0x85, 0x90, 0x48, 0xbe,
  0x2f, 0xe9, 0x92, 0xbe, 0x2e, 0xc7, 0xc5, 0xbc, 0x66, 0x9d, 0x0f, 0xbd,
  0x78, 0x32, 0xa4, 0xbe, 0x22, 0xb6, 0x77, 0xbe, 0x27, 0x92, 0x1a, 0xbd,
  0x43, 0x03, 0x0e, 0xbe, 0x63, 0xff, 0xb8, 0xbe, 0x37, 0x6d, 0x39, 0xbe,
  0x5c, 0x16, 0x2f, 0xbe, 0x35, 0x59, 0xd6, 0xbd, 0x00, 0x26, 0x6e, 0xbe,
  0xdc, 0x20, 0x89, 0xbe, 0xbd, 0x8e, 0x06, 0xbd, 0x32, 0x93, 0x3c, 0xbe,
  0x04, 0x0e, 0x8c, 0xbe, 0x98, 0xf6, 0x05, 0xbe, 0x18, 0x64, 0x41, 0x3e,
  0x67, 0x2a, 0x22, 0xbc, 0x43, 0x64, 0xd6, 0x3e, 0x95, 0xe1, 0x82, 0xbe,
  0xfc, 0xd0, 0xf8, 0xbc, 0xd8, 0x1c, 0xbd, 0xbd, 0x59, 0x7c, 0x0a, 0xbe,
  0xde, 0xe9, 0x80, 0xbd, 0xde, 0x79, 0x54, 0x3d, 0x65, 0x3c, 0xa0, 0x3c,
  0x29, 0x19, 0x97, 0xbd, 0x36, 0xf3, 0x9d, 0xbe, 0x89, 0x09, 0x4f, 0xbd,
  0x16, 0xb7, 0x44, 0xbd, 0x3e, 0xcb, 0x2f, 0xbe, 0xc5, 0x39, 0xe3, 0xbd,
  0x36, 0x6a, 0xba, 0xbe, 0xec, 0x69, 0xa8, 0x3c, 0x36, 0x81, 0xa2, 0xbe,
  0x4b, 0xd3, 0xb1, 0xbe, 0xdf, 0x5d, 0x40, 0xbd, 0xc2, 0xa9, 0x78, 0xbd,
  0xe4, 0x12, 0x18, 0xbe, 0x2a, 0xe2, 0x58, 0xbd, 0x71, 0x2f, 0x34, 0xbe,
  0xda, 0x98, 0xc8, 0xbd, 0xb0, 0xb8, 0xd6, 0xbd, 0x74, 0x1e, 0x5b, 0x3b,
  0x7a, 0x84, 0x45, 0xbd, 0xfa, 0xe8, 0x26, 0xbd, 0xc8, 0xc1, 0x8f, 0x3e,
  0xe1, 0xbd, 0x98, 0x3d, 0x98, 0x99, 0xeb, 0x3d, 0xc6, 0x05, 0x8d, 0xbd,
  0x86, 0x88, 0x10, 0x3c, 0xeb, 0x14, 0x6f, 0x3e, 0x7e, 0xf3, 0xf9, 0xbc,
  0xda, 0x4e, 0x5a, 0x3e, 0xcf, 0x6e, 0x76, 0x3d, 0xa7, 0xd7, 0xab, 0x3e,
  0xcb, 0x08, 0x5f, 0x3e, 0x67, 0x0d, 0x0e, 0xbe, 0xbc, 0x92, 0x94, 0x3e,
  0xca, 0x37, 0x80, 0x3e, 0xb9, 0x92, 0x2b, 0xbe, 0x77, 0x88, 0x3a, 0x3e,
  0xa4, 0x50, 0x82, 0xbe, 0xca, 0x01, 0x91, 0xbe, 0xd7, 0xe1, 0x4d, 0x3e,
  0xa5, 0x9a, 0x2f, 0xbe, 0x31, 0x4b, 0x86, 0x3d, 0x67, 0xd9, 0x42, 0xbe,
  0x8b, 0x65, 0x06, 0xbe, 0x34, 0xec, 0xd3, 0xbe, 0x94, 0x5a, 0x45, 0xbe,
  0xf7, 0xa1, 0xdc, 0xbe, 0x00, 0x40, 0x21, 0x3d, 0xf4, 0x6d, 0x04, 0x3e,
  0xa1, 0x3b, 0x8f, 0x3e, 0x33, 0x97, 0xa0, 0xbd, 0x65, 0xa6, 0x49, 0x3d,
  0x5d, 0x70, 0xca, 0xbe, 0xcd, 0xe4, 0xf6, 0xbe, 0x2b, 0x7c, 0x10, 0xbf,
  0xc8, 0x3f, 0x5f, 0x3e, 0x67, 0xf9, 0xe2, 0x3c, 0xc3, 0x6e, 0x1a, 0xbd,
  0xd3, 0x00, 0x1c, 0xbe, 0xe6, 0x4e, 0x86, 0xbd, 0x3d, 0xb9, 0xa5, 0xbe,
  0x8a, 0xc9, 0xcc, 0xbd, 0x04, 0xd6, 0xfd, 0xbc, 0x81, 0xa5, 0x20, 0xbe,
  0xe1, 0x64, 0x69, 0x3e, 0xa0, 0xbb, 0x59, 0xbd, 0xd8, 0x14, 0x86, 0xbe,
  0x23, 0xc0, 0xef, 0x3d, 0x0b, 0xdd, 0x83, 0xbd, 0x9d, 0x60, 0x81, 0xbb,
  0xba, 0xc3, 0x21, 0x3d, 0x14, 0x08, 0x17, 0x3f, 0x26, 0x57, 0x51, 0xbd,
  0x41, 0x03, 0x35, 0xbd, 0x6b, 0xf3, 0xd8, 0x3e, 0xa4, 0xa6, 0x72, 0xbc,
  0x46, 0x8c, 0x6c, 0xbd, 0x1a, 0x83, 0x13, 0xbc, 0x22, 0xfb, 0x08, 0xbd,
  0x61, 0x50, 0xf1, 0xbc, 0x7c, 0xe7, 0x8a, 0x3d, 0xf2, 0x02, 0xf2, 0x3d,
  0x69, 0x73, 0x55, 0xbc, 0x19, 0xb1, 0x89, 0xbc, 0xf6, 0xe9, 0xa9, 0xbd,
  0x44, 0x68, 0x38, 0xbd, 0x93, 0xcd, 0x36, 0xbc, 0x15, 0xc7, 0x6f, 0xbd,
  0xd9, 0xcd, 0xe4, 0x3b, 0x72, 0xad, 0x2f, 0xbc, 0xa7, 0x6d, 0xc9, 0xbd,
  0x76, 0x2a, 0xcd, 0x3d, 0x5e, 0x07, 0x56, 0xbd, 0x42, 0x09, 0x9b, 0xbe,
  0x97, 0x78, 0x59, 0x3c, 0x88, 0x25, 0x22, 0xbc, 0x75, 0xd7, 0xb3, 0xbe,
  0xf4, 0xc8, 0xed, 0xbd, 0x05, 0x9c, 0x31, 0xbe, 0xb1, 0x9e, 0x5d, 0xbd,
  0x61, 0x0e, 0xc5, 0xbc, 0x06, 0xd0, 0xb8, 0x3e, 0xd9, 0xc3, 0x79, 0x3c,
  0x6b, 0xef, 0xac, 0xbc, 0xc7, 0x7f, 0xad, 0xbe, 0xdd, 0xe4, 0xa1, 0x3d,
  0x05, 0x59, 0xc3, 0x3d, 0xdf, 0x51, 0xc4, 0xbc, 0x70, 0x2b, 0xd9, 0xbb,
  0x1f, 0x2f, 0x1c, 0xbe, 0x45, 0xc0, 0xcc, 0xbe, 0x66, 0x03, 0x4e, 0xbe,
  0xdd, 0xdd, 0x7a, 0xbc, 0xb7, 0x47, 0x84, 0xbd, 0x76, 0x06, 0x13, 0x3d,
  0x7e, 0x77, 0xe0, 0xbc, 0x3e, 0xda, 0x45, 0xbe, 0xb0, 0x28, 0x43, 0xbb,
  0xc4, 0xb3, 0x5b, 0xbe, 0x6e, 0x23, 0x09, 0xbe, 0x8c, 0x65, 0xf7, 0xbd,
  0xfe, 0x81, 0xae, 0xbc, 0x59, 0x99, 0x8d, 0x3e, 0x5c, 0x28, 0x9a, 0xbc,
  0x4b, 0x93, 0x99, 0xbd, 0x87, 0xef, 0x60, 0xbe, 0x67, 0x5d, 0x0b, 0xbe,
  0x2b, 0xf7, 0x75, 0xbe, 0xaa, 0xe4, 0x96, 0xbe, 0x77, 0xb0, 0x1a, 0xbe,
  0xb8, 0x8e, 0xdc, 0xbe, 0xaa, 0x56, 0xa7, 0x3d, 0x52, 0x15, 0xea, 0x3d,
  0xf3, 0xb9, 0x31, 0x3e, 0xb5, 0x2b, 0xd7, 0xbd, 0xcd, 0x61, 0x2b, 0xbe,
  0xc5, 0x5f, 0x60, 0xbe, 0xd0, 0xf4, 0x3c, 0xbe, 0xaa, 0x0b, 0x94, 0x3e,
  0x90, 0xba, 0x49, 0xbd, 0xe9, 0x29, 0x74, 0x3d, 0x45, 0xc8, 0x93, 0xbe,
  0x7f, 0x4f, 0x88, 0xbe, 0x06, 0x3c, 0x03, 0xbf, 0x1c, 0x43, 0xc6, 0xbc,
  0x53, 0xe6, 0x21, 0xbe, 0xf9, 0x0a, 0x82, 0xbe, 0xb0, 0x9a, 0x18, 0xbe,
  0x2e, 0xf6, 0x06, 0xbe, 0xef, 0x4a, 0x5d, 0xbd, 0x5e, 0xfb, 0x17, 0x3e,
  0xe7, 0xa2, 0x1c, 0xbe, 0xf8, 0xb0, 0x11, 0x3e, 0xd4, 0x18, 0xd8, 0xbe,
  0x9f, 0x41, 0x0e, 0xbd, 0x39, 0x04, 0xb0, 0xbd, 0x9e, 0x1f, 0x2e, 0xbc,
  0x0a, 0xdf, 0xff, 0xff, 0x10, 0x00, 0x00, 0x00, 0x08, 0x00, 0x00, 0x00,
  0x1c, 0x00, 0x00, 0x00, 0x38, 0x00, 0x00, 0x00, 0x04, 0x00, 0x00, 0x00,
  0x10, 0x00, 0x00, 0x00, 0x04, 0x00, 0x00, 0x00, 0x01, 0x00, 0x00, 0x00,
  0x08, 0x00, 0x00, 0x00, 0x1a, 0x00, 0x00, 0x00, 0x73, 0x65, 0x71, 0x75,
  0x65, 0x6e, 0x74, 0x69, 0x61, 0x6c, 0x2f, 0x63, 0x6f, 0x6e, 0x76, 0x32,
  0x64, 0x5f, 0x31, 0x2f, 0x43, 0x6f, 0x6e, 0x76, 0x32, 0x44, 0x00, 0x00,
  0x04, 0xdf, 0xff, 0xff, 0xfa, 0xdf, 0xff, 0xff, 0x04, 0x00, 0x00, 0x00,
  0x80, 0x01, 0x00, 0x00, 0xec, 0xa6, 0x57, 0xbe, 0x51, 0x9c, 0x8a, 0x3e,
  0xd0, 0x28, 0x6f, 0xbe, 0x4d, 0x3b, 0xf3, 0x3e, 0xde, 0xe2, 0x51, 0xbc,
  0x83, 0xa5, 0xb5, 0x3b, 0x86, 0xed, 0x91, 0xbd, 0xea, 0x78, 0xdf, 0xbe,
  0xb6, 0x3c, 0x3f, 0x3d, 0x35, 0xc7, 0xa1, 0xbe, 0x78, 0xa0, 0x98, 0xbc,
  0x48, 0x51, 0xeb, 0xbb, 0x37, 0x2a, 0xb3, 0x3c, 0x46, 0x71, 0x24, 0xbe,
  0x94, 0x73, 0x30, 0x3e, 0xaf, 0xfc, 0xc5, 0xbe, 0xc8, 0x45, 0xd0, 0x3d,
  0x81, 0x1d, 0x02, 0xbc, 0xc3, 0x51, 0x3f, 0xbe, 0x47, 0x46, 0x00, 0xbe,
  0xdd, 0x25, 0x97, 0xbd, 0x09, 0xbd, 0x0b, 0x3e, 0x01, 0x41, 0x82, 0xbd,
  0xa2, 0x5b, 0x0c, 0xbe, 0x4b, 0x9c, 0x38, 0xbe, 0x94, 0x70, 0x77, 0x3d,
  0xcb, 0x87, 0xcf, 0x3d, 0x56, 0xd2, 0x03, 0xbf, 0x87, 0x29, 0x0b, 0x3e,
  0xe6, 0x43, 0xfd, 0xbd, 0x40, 0x85, 0x2e, 0x3f, 0xd4, 0xfe, 0x57, 0xbe,
  0x63, 0xdf, 0x8b, 0xbc, 0x18, 0x47, 0x6b, 0x3c, 0xba, 0x29, 0x82, 0xbb,
  0xa5, 0x8e, 0x91, 0xbc, 0xc8, 0x4e, 0x19, 0xbe, 0x61, 0x2d, 0x53, 0x3e,
  0x70, 0xfe, 0xd6, 0xbe, 0x60, 0xb5, 0x79, 0xbe, 0xb8, 0x57, 0x24, 0xbe,
  0x69, 0xbc, 0xec, 0xbd, 0x3f, 0xdb, 0x42, 0xbe, 0x6f, 0x3e, 0x71, 0x3d,
  0x21, 0x2b, 0xd2, 0xbd, 0xf7, 0x5d, 0x28, 0xbe, 0x06, 0x65, 0x01, 0xbe,
  0xe8, 0x77, 0x30, 0xbe, 0x4c, 0xf0, 0x93, 0xbe, 0x80, 0xb9, 0xfc, 0x3c,
  0x7a, 0x5c, 0x21, 0xbd, 0xab, 0xf5, 0x35, 0xbe, 0x72, 0xaf, 0x12, 0x3c,
  0xa0, 0xb6, 0xad, 0xbd, 0x2a, 0xcb, 0x5c, 0x3d, 0x2b, 0x05, 0xa1, 0xbc,
  0x46, 0x76, 0xbf, 0x3a, 0x66, 0xdb, 0xc7, 0x3e, 0x3e, 0x66, 0xf9, 0xbc,
  0xbe, 0xd1, 0xe4, 0x3d, 0xe7, 0x0f, 0x44, 0x3e, 0xdd, 0xc1, 0x1f, 0x3c,
  0xe6, 0x2e, 0x0a, 0x3c, 0x65, 0x71, 0x5d, 0xbe, 0x59, 0x3c, 0xf5, 0x3e,
  0xdd, 0x55, 0xd7, 0xbd, 0xcb, 0x5e, 0x3e, 0xbd, 0x5e, 0xa3, 0x0e, 0xbf,
  0xce, 0xd6, 0x2d, 0x3d, 0xc9, 0x29, 0xd2, 0x3d, 0x49, 0xfa, 0x33, 0xbd,
  0x4a, 0xae, 0xe9, 0xbd, 0x18, 0x8e, 0x10, 0x3e, 0x14, 0x93, 0xe5, 0x3d,
  0xf3, 0x06, 0x87, 0xbe, 0x2f, 0xb6, 0x5d, 0x3e, 0xf5, 0xf7, 0x0c, 0xbb,
  0xbd, 0xab, 0x63, 0xbe, 0x59, 0xef, 0x58, 0x3e, 0xd6, 0xcd, 0xd9, 0xbd,
  0x05, 0xba, 0x9a, 0x3d, 0xc4, 0x6a, 0x13, 0x3e, 0x82, 0x2e, 0x58, 0x3d,
  0x94, 0x64, 0x48, 0xbd, 0xe2, 0x03, 0x6c, 0x3d, 0x60, 0x60, 0x3d, 0xbd,
  0xc0, 0x16, 0x1e, 0x3c, 0x54, 0xea, 0x38, 0xbe, 0xc6, 0x99, 0xac, 0xbd,
  0xd4, 0x87, 0xbc, 0x3d, 0xd2, 0x42, 0x9c, 0xbd, 0xbc, 0x82, 0xf5, 0xbd,
  0x9d, 0x34, 0x61, 0xbd, 0xb7, 0x8c, 0xb7, 0x3d, 0xa2, 0x18, 0x56, 0xbe,
  0xe5, 0x2a, 0x1b, 0xbe, 0xe2, 0xe0, 0xff, 0xff, 0x10, 0x00, 0x00, 0x00,
  0x07, 0x00, 0x00, 0x00, 0x1c, 0x00, 0x00, 0x00, 0x38, 0x00, 0x00, 0x00,
  0x04, 0x00, 0x00, 0x00, 0x08, 0x00, 0x00, 0x00, 0x04, 0x00, 0x00, 0x00,
  0x03, 0x00, 0x00, 0x00, 0x01, 0x00, 0x00, 0x00, 0x18, 0x00, 0x00, 0x00,
  0x73, 0x65, 0x71, 0x75, 0x65, 0x6e, 0x74, 0x69, 0x61, 0x6c, 0x2f, 0x63,
  0x6f, 0x6e, 0x76, 0x32, 0x64, 0x2f, 0x43, 0x6f, 0x6e, 0x76, 0x32, 0x44,
  0x00, 0x00, 0x00, 0x00, 0xdc, 0xe0, 0xff, 0xff, 0xd2, 0xe1, 0xff, 0xff,
  0x04, 0x00, 0x00, 0x00, 0xc0, 0x00, 0x00, 0x00, 0x77, 0xa0, 0x80, 0xbe,
  0x89, 0x2d, 0xab, 0x3e, 0xf8, 0x5a, 0xb4, 0x3e, 0xd5, 0xfc, 0x9c, 0x3e,
  0x0f, 0x83, 0x14, 0xbe, 0x1b, 0x2c, 0x01, 0xbe, 0x64, 0x03, 0x13, 0xbe,
  0xd1, 0x04, 0x51, 0xbe, 0x83, 0x74, 0x4e, 0x3e, 0x2e, 0xee, 0xd8, 0xbe,
  0xb6, 0xe3, 0xe0, 0x3d, 0x43, 0x1f, 0x8b, 0xbd, 0xdb, 0x1b, 0x87, 0xbe,
  0xf8, 0x41, 0x8f, 0x3d, 0x74, 0x74, 0x37, 0xbe, 0x82, 0xd0, 0xee, 0x3d,
  0x02, 0x29, 0x29, 0xbe, 0xc2, 0xf8, 0x7c, 0x3e, 0x31, 0xe4, 0xc1, 0x3d,
  0xd0, 0x76, 0x72, 0x3e, 0x46, 0x5a, 0x51, 0xbb, 0x05, 0x09, 0x48, 0xbe,
  0xd6, 0x4c, 0xfd, 0xbd, 0x70, 0x21, 0x2d, 0xbe, 0xf1, 0xbc, 0x68, 0x3e,
  0xad, 0xc1, 0x02, 0xbf, 0xe5, 0x2c, 0x00, 0x3e, 0x46, 0xe5, 0xb0, 0x3c,
  0x51, 0xdd, 0x71, 0xbe, 0xde, 0xfa, 0x7d, 0xbd, 0xbf, 0xc9, 0xe6, 0xbd,
  0xb9, 0x6d, 0x8b, 0xbb, 0xfa, 0x06, 0xf6, 0xbd, 0x7f, 0x56, 0x86, 0x3e,
  0x1f, 0xb4, 0xd6, 0x3e, 0xad, 0x13, 0x61, 0x3e, 0x25, 0x3d, 0x44, 0xbe,
  0x04, 0x3b, 0x24, 0xbd, 0xbd, 0x57, 0x64, 0xbd, 0x64, 0x22, 0xcb, 0xbd,
  0xba, 0x9e, 0x5e, 0x3d, 0xd5, 0x69, 0x77, 0xbe, 0xd0, 0xe4, 0x7c, 0x3c,
  0xc8, 0xde, 0xd1, 0x3e, 0x7e, 0x00, 0x8e, 0xbe, 0x77, 0xaf, 0x70, 0xbc,
  0x28, 0x70, 0x9b, 0xbe, 0xa6, 0xc7, 0x0c, 0x3d, 0xfa, 0xe1, 0xff, 0xff,
  0x10, 0x00, 0x00, 0x00, 0x06, 0x00, 0x00, 0x00, 0x14, 0x00, 0x00, 0x00,
  0x30, 0x00, 0x00, 0x00, 0x02, 0x00, 0x00, 0x00, 0x03, 0x00, 0x00, 0x00,
  0x10, 0x00, 0x00, 0x00, 0x19, 0x00, 0x00, 0x00, 0x73, 0x65, 0x71, 0x75,
  0x65, 0x6e, 0x74, 0x69, 0x61, 0x6c, 0x2f, 0x64, 0x65, 0x6e, 0x73, 0x65,
  0x5f, 0x31, 0x2f, 0x4d, 0x61, 0x74, 0x4d, 0x75, 0x6c, 0x00, 0x00, 0x00,
  0xec, 0xe1, 0xff, 0xff, 0xe2, 0xe2, 0xff, 0xff, 0x04, 0x00, 0x00, 0x00,
  0x00, 0x1c, 0x00, 0x00, 0xda, 0xad, 0xed, 0xbd, 0xe6, 0x5f, 0xbb, 0x3e,
  0x30, 0x90, 0x70, 0xbe, 0xd0, 0x3c, 0xd6, 0xbd, 0xdc, 0xc0, 0xd8, 0xbe,
  0x41, 0xa4, 0xa3, 0x3d, 0x78, 0x71, 0xa7, 0xbe, 0x9d, 0xc9, 0x5a, 0xbe,
  0xcf, 0xc6, 0xf5, 0xbe, 0x4d, 0x13, 0xce, 0xbe, 0x46, 0xf4, 0xb4, 0x3e,
  0xe1, 0x2f, 0x1c, 0xbd, 0x57, 0x12, 0xe2, 0xbd, 0x6d, 0x78, 0x17, 0xbc,
  0x44, 0x90, 0xa8, 0x3e, 0xee, 0xd2, 0x2f, 0x3f, 0x0f, 0x9f, 0x3e, 0x3e,
  0x39, 0x71, 0x68, 0xbe, 0x3b, 0xc3, 0x71, 0x3d, 0x88, 0x6e, 0xb3, 0x3d,
  0x07, 0x0c, 0x8c, 0x3d, 0x02, 0x90, 0x50, 0xbe, 0x86, 0x5d, 0xae, 0x3e,
  0x4a, 0x84, 0xd7, 0xbd, 0x74, 0xca, 0x8c, 0xbe, 0x35, 0xab, 0x37, 0x3e,
  0xf3, 0x52, 0x67, 0xbd, 0xf2, 0xb5, 0x59, 0x3e, 0xbd, 0x0f, 0x00, 0x3e,
  0xfb, 0x48, 0xe7, 0x3c, 0xd2, 0x11, 0xde, 0x3e, 0x03, 0x9a, 0x6d, 0x3f,
  0x10, 0xda, 0x7c, 0x3e, 0x2f, 0x01, 0x07, 0xbd, 0x58, 0xcc, 0x8c, 0x3e,
  0xc9, 0x39, 0x85, 0xbd, 0xfc, 0xa3, 0x5d, 0xbd, 0x3a, 0x7a, 0x77, 0xbc,
  0xb1, 0x15, 0x22, 0x3d, 0x6b, 0xf6, 0x92, 0xbe, 0x80, 0xb3, 0xad, 0x3e,
  0xc6, 0x48, 0x87, 0x3e, 0x8d, 0xab, 0xb1, 0xbc, 0x48, 0x62, 0xce, 0x3e,
  0xe6, 0xce, 0x37, 0x3e, 0x0e, 0xa6, 0x9a, 0x3c, 0x98, 0xcf, 0x2d, 0xbe,
  0x34, 0xde, 0x20, 0x3f, 0xc2, 0x85, 0xf0, 0x3e, 0xa0, 0x3a, 0x86, 0x3e,
  0xc0, 0x1d, 0x6f, 0x3c, 0xe5, 0x29, 0x3f, 0x3e, 0x52, 0xdd, 0x7e, 0x3c,
  0x21, 0x88, 0x95, 0xbe, 0x20, 0x69, 0x00, 0x3e, 0x4d, 0x93, 0x19, 0xbe,
  0x95, 0x85, 0x9d, 0x3e, 0x4d, 0x03, 0x4b, 0x3e, 0x05, 0xd1, 0x1c, 0x3d,
  0x0d, 0x8e, 0x07, 0x3f, 0xab, 0x5f, 0x81, 0x3e, 0x8b, 0xf0, 0xb1, 0x3d,
  0xd9, 0xb6, 0x9c, 0x3d, 0xed, 0x68, 0x5f, 0x3e, 0x20, 0xae, 0xdd, 0x3e,
  0xd4, 0x9d, 0xf9, 0x3e, 0x5d, 0xf8, 0xbf, 0x3e, 0xc3, 0x54, 0x9a, 0xbd,
  0x2c, 0xa8, 0x27, 0xbe, 0xe4, 0x63, 0xf5, 0xbd, 0x1b, 0xec, 0xf1, 0x3d,
  0xdc, 0x1c, 0xc6, 0xbe, 0x7a, 0xf2, 0x5f, 0x3e, 0x05, 0x1c, 0x53, 0xbd,
  0xdc, 0x1e, 0x93, 0x3e, 0xc2, 0x9f, 0xdc, 0x3e, 0x28, 0xa1, 0x1a, 0x3e,
  0x82, 0xd9, 0xac, 0x3d, 0xa7, 0x95, 0xdd, 0x3e, 0x18, 0xe4, 0x0a, 0x3f,
  0xff, 0x1a, 0xac, 0x3d, 0xa7, 0x00, 0x06, 0x3f, 0xfb, 0xbb, 0xee, 0x3d,
  0x4e, 0xe4, 0x4b, 0xbe, 0x80, 0x53, 0xaa, 0xbe, 0xf6, 0x24, 0xa9, 0xbe,
  0x59, 0x05, 0xc0, 0xbd, 0x16, 0xb1, 0xd7, 0xbe, 0x43, 0x34, 0xdc, 0x3e,
  0xe9, 0x62, 0x8f, 0x3e, 0x0b, 0x28, 0x87, 0x3d, 0x33, 0xed, 0xfc, 0xbd,
  0xec, 0xd4, 0x01, 0xbd, 0x6d, 0xb4, 0x4a, 0x3d, 0x6b, 0x55, 0xbd, 0x3e,
  0x48, 0xf1, 0x96, 0x3e, 0x8c, 0xef, 0xe0, 0xbd, 0x3b, 0x26, 0x32, 0xbe,
  0x92, 0x8e, 0x85, 0x3e, 0x7a, 0xfd, 0x67, 0xbd, 0xba, 0x53, 0x9c, 0xbe,
  0xfb, 0x97, 0x78, 0x3e, 0x3a, 0x29, 0x9e, 0x3d, 0x18, 0xd9, 0xba, 0xbe,
  0x06, 0xd7, 0xbd, 0xbb, 0x89, 0xec, 0x5f, 0xbe, 0xab, 0x85, 0x83, 0xbc,
  0x07, 0x89, 0x73, 0xbe, 0xad, 0xfc, 0xc0, 0xbd, 0x8c, 0xcb, 0x01, 0x3d,
  0x87, 0x21, 0x49, 0xbe, 0x78, 0x6a, 0xb9, 0xbd, 0x95, 0x52, 0xb5, 0x3d,
  0xb6, 0x37, 0xb9, 0xbe, 0x81, 0xd0, 0xe9, 0xbe, 0x8f, 0xfb, 0xbf, 0xbe,
  0x25, 0xb1, 0xb5, 0x3d, 0xe0, 0xbb, 0x6b, 0x3f, 0x3c, 0x57, 0x13, 0xbf,
  0x30, 0x84, 0xa2, 0x3f, 0x6d, 0xe1, 0x47, 0x3e, 0x07, 0x31, 0x85, 0xbe,
  0xa1, 0x9c, 0x69, 0xbe, 0x85, 0xba, 0xd7, 0xbd, 0x7b, 0xee, 0x51, 0x3e,
  0x37, 0xf1, 0xeb, 0x3d, 0x22, 0xa6, 0x1d, 0xbe, 0xad, 0xc4, 0xcd, 0x3e,
  0x0c, 0xf9, 0x06, 0xbe, 0xb4, 0xb0, 0x10, 0x3f, 0xb9, 0xad, 0x96, 0x3b,
  0x2c, 0x90, 0xa1, 0x3d, 0x65, 0x06, 0x7a, 0x3d, 0xf2, 0x73, 0x66, 0x3f,
  0x24, 0x4d, 0x6a, 0xbe, 0xd2, 0x31, 0xe7, 0x3f, 0xa3, 0x05, 0xfa, 0xbb,
  0x0b, 0x1b, 0xc0, 0x3e, 0x84, 0x61, 0x41, 0xbd, 0x96, 0x4e, 0x41, 0xbd,
  0xdc, 0x6c, 0xc2, 0x3e, 0x8a, 0xcd, 0xc0, 0xbd, 0xa5, 0xec, 0x47, 0x3e,
  0x44, 0xa2, 0x50, 0xbe, 0x51, 0xb5, 0x21, 0xbd, 0xb6, 0x86, 0x16, 0x3e,
  0xa9, 0x40, 0x6f, 0x3e, 0xcf, 0x30, 0x46, 0x3d, 0xde, 0xfc, 0x78, 0x3c,
  0xcd, 0xc9, 0x28, 0x40, 0xff, 0x81, 0x1d, 0x3e, 0xea, 0xbf, 0x4b, 0x40,
  0x34, 0x7f, 0x92, 0xbc, 0x75, 0x62, 0x06, 0xbc, 0x08, 0x6c, 0x38, 0x3e,
  0xfa, 0xb3, 0xdd, 0xbd, 0x0d, 0x41, 0x7e, 0xbd, 0x70, 0x65, 0x4e, 0xbd,
  0x3e, 0xed, 0xd0, 0x3d, 0x18, 0xc7, 0x10, 0xbd, 0xbb, 0x36, 0x24, 0xbe,
  0xf8, 0xa4, 0x1a, 0x3e, 0xef, 0x1e, 0x67, 0xbd, 0xff, 0x7c, 0x0a, 0x3e,
  0x0d, 0xcc, 0xbe, 0xbd, 0xb7, 0x40, 0xbb, 0x3f, 0x29, 0x7d, 0x81, 0x3d,
  0x02, 0x14, 0x18, 0x40, 0x10, 0x1e, 0x23, 0xbe, 0xaf, 0x17, 0x01, 0xbe,
  0x58, 0x2b, 0x31, 0x3d, 0xb1, 0xac, 0x28, 0xbe, 0xea, 0x88, 0x78, 0x3c,
  0xa0, 0xa1, 0x4a, 0xbd, 0xfc, 0x13, 0x95, 0x3e, 0x07, 0x5b, 0x04, 0xbd,
  0xbb, 0xd2, 0x2d, 0xbe, 0x98, 0x07, 0x28, 0x3d, 0xf8, 0xa1, 0x01, 0xbe,
  0x78, 0xeb, 0x31, 0x3e, 0xb3, 0x51, 0xc9, 0xbc, 0xd2, 0xfb, 0xd4, 0x3f,
  0x00, 0xff, 0x37, 0x3e, 0x0c, 0xe3, 0xd8, 0x3f, 0x76, 0x27, 0x19, 0xbd,
  0x3d, 0x5b, 0x39, 0xbc, 0xf1, 0x9a, 0xfa, 0xbb, 0x98, 0x29, 0x20, 0xbe,
  0x75, 0x1d, 0xba, 0xbd, 0xac, 0x93, 0x2b, 0xbd, 0x14, 0x3b, 0x4f, 0x3e,
  0x27, 0x5a, 0xa5, 0xbd, 0xa0, 0x01, 0xed, 0xbe, 0xbd, 0xa7, 0x9d, 0x3d,
  0x50, 0xe5, 0xe9, 0xbd, 0x9c, 0x29, 0xcf, 0xbe, 0xc6, 0xd2, 0x51, 0xbd,
  0xdc, 0xdd, 0xbf, 0x3f, 0xda, 0x9a, 0x6a, 0xbe, 0x67, 0x27, 0xb8, 0x3f,
  0xef, 0xd5, 0xa1, 0xbd, 0x8d, 0x4f, 0xc2, 0x3e, 0xd9, 0x4e, 0x72, 0xbe,
  0x07, 0x68, 0xc1, 0x3e, 0x95, 0xe1, 0x99, 0xbe, 0x3a, 0xee, 0xe5, 0xbd,
  0xd7, 0x64, 0x2f, 0x3e, 0xe2, 0xbf, 0x91, 0x3d, 0x15, 0xc3, 0x95, 0x3d,
  0x97, 0x05, 0x2b, 0xbe, 0xaa, 0x7e, 0x1c, 0xbe, 0x56, 0xda, 0x2d, 0xbe,
  0x14, 0x59, 0x04, 0x3e, 0xff, 0x66, 0x26, 0xbe, 0xa0, 0x0e, 0x36, 0xbe,
  0xcc, 0x30, 0x00, 0x40, 0x92, 0x7d, 0xc5, 0x3d, 0x46, 0x52, 0x9c, 0xbd,
  0x44, 0x24, 0x82, 0xbe, 0x34, 0x0b, 0x50, 0x3e, 0xd0, 0x58, 0x9d, 0x3d,
  0x73, 0x78, 0x57, 0x3d, 0xd9, 0xab, 0x10, 0x3e, 0x36, 0x74, 0xab, 0x3e,
  0xee, 0xf5, 0x4e, 0xbd, 0x29, 0x81, 0xd4, 0x3c, 0x33, 0xac, 0x21, 0xbe,
  0x1e, 0x3d, 0x7a, 0xbe, 0x93, 0x3d, 0x85, 0xbc, 0xdb, 0x77, 0xa5, 0x3e,
  0x37, 0x83, 0x23, 0xbd, 0xf5, 0x75, 0x68, 0xbe, 0x6f, 0xd9, 0x0d, 0xbe,
  0x54, 0xc9, 0x2b, 0xbe, 0x5c, 0xbc, 0x7e, 0x3e, 0x53, 0x62, 0xd5, 0xbe,
  0x79, 0x87, 0x76, 0xbd, 0x6a, 0xf4, 0xb9, 0xbc, 0x7f, 0x72, 0xc9, 0x3d,
  0x34, 0x35, 0x77, 0x3e, 0x52, 0xec, 0x26, 0x3e, 0xf3, 0x27, 0x33, 0xbe,
  0x66, 0x5c, 0xb9, 0x3e, 0x3a, 0xde, 0x72, 0xbd, 0x0f, 0x60, 0xfd, 0x3d,
  0xc1, 0x2a, 0xc4, 0x3e, 0x97, 0x30, 0x0a, 0x3e, 0xc6, 0x8a, 0xed, 0xbd,
  0x0d, 0xda, 0x38, 0xbe, 0x73, 0x3d, 0xc8, 0x3d, 0x51, 0x54, 0x46, 0x3e,
  0x14, 0x48, 0x9b, 0xbb, 0x74, 0x87, 0xa4, 0x3d, 0x54, 0x91, 0x17, 0xbc,
  0x0d, 0x8f, 0x83, 0x3e, 0x84, 0x5c, 0x73, 0x3f, 0x33, 0x0b, 0xea, 0x3d,
  0xe2, 0x90, 0xc1, 0x3e, 0xda, 0x40, 0x17, 0x3e, 0x69, 0x25, 0x8b, 0xbe,
  0x2b, 0xc9, 0xa0, 0x3d, 0xcb, 0x11, 0x21, 0x3e, 0xcb, 0x71, 0x5a, 0x3d,
  0x83, 0xa0, 0x20, 0xbe, 0xd4, 0x0e, 0x07, 0x3d, 0x0b, 0x63, 0x08, 0x3e,
  0x97, 0x29, 0xf3, 0x3e, 0x4c, 0x55, 0xcd, 0x3e, 0xf7, 0x22, 0x29, 0xbe,
  0x04, 0xe5, 0xec, 0x3c, 0x6b, 0x7d, 0x55, 0x3e, 0xe4, 0xd2, 0xab, 0x3e,
  0x36, 0xe6, 0x19, 0xbd, 0xc1, 0xbb, 0xcd, 0x3d, 0xa6, 0xdb, 0xa0, 0x3e,
  0xd8, 0xc8, 0x6b, 0xbe, 0xce, 0xf4, 0xb1, 0xbd, 0x66, 0xed, 0xe2, 0x3e,
  0x23, 0xe4, 0xe2, 0x3e, 0x47, 0xc6, 0xa3, 0xbd, 0xd2, 0x04, 0x07, 0x3f,
  0xc6, 0xd6, 0x99, 0x3e, 0x09, 0xa4, 0x9c, 0x3e, 0x6e, 0x54, 0x39, 0x3e,
  0xa8, 0xed, 0x85, 0x3e, 0xc8, 0x42, 0x2b, 0xbd, 0xaf, 0x16, 0x92, 0x3c,
  0x46, 0xa6, 0xef, 0x3e, 0x2c, 0x19, 0x47, 0x3e, 0x25, 0x0b, 0xcd, 0x3d,
  0x55, 0xf9, 0x9c, 0x3c, 0xdf, 0x86, 0xaf, 0xbe, 0xe6, 0x7e, 0x22, 0xbe,
  0x34, 0xc1, 0x08, 0x3f, 0x06, 0xd6, 0x5c, 0xbc, 0x9b, 0x10, 0x10, 0xbe,
  0xa8, 0x9e, 0x32, 0x3e, 0xc9, 0xc3, 0x95, 0x3d, 0xbf, 0x14, 0x75, 0x3e,
  0xe2, 0x3e, 0x19, 0x3e, 0x0d, 0x75, 0x68, 0x3d, 0xdf, 0x5f, 0x37, 0x3d,
  0x38, 0x59, 0xf9, 0x3e, 0x93, 0x94, 0xfa, 0x3e, 0x1d, 0x31, 0xf9, 0xbd,
  0xd6, 0x29, 0x33, 0x3e, 0xab, 0xe0, 0xb2, 0xbd, 0xae, 0x68, 0xa0, 0xbe,
  0x4c, 0x63, 0x94, 0xbe, 0x62, 0x9f, 0x36, 0x3f, 0xd4, 0xad, 0x1a, 0x3d,
  0xf6, 0xe9, 0xd0, 0xbe, 0xb0, 0x1c, 0xcd, 0x3e, 0x23, 0xae, 0xe0, 0x3b,
  0xf9, 0xf3, 0x21, 0xbd, 0xe7, 0xaf, 0xd8, 0xbd, 0xdc, 0x37, 0x83, 0xbd,
  0xf2, 0x9f, 0x3d, 0x3d, 0xc9, 0x51, 0x61, 0x3e, 0xd3, 0x5f, 0x8f, 0x3e,
  0x5c, 0x36, 0x84, 0xbe, 0x5c, 0xe3, 0xe8, 0xbe, 0x68, 0x6f, 0x8a, 0x3e,
  0x10, 0x8c, 0xd7, 0xbe, 0x53, 0xdb, 0xc0, 0xbd, 0x8f, 0xa8, 0xb3, 0x3e,
  0xdb, 0x54, 0x1e, 0xbe, 0xa3, 0xaa, 0x44, 0xbe, 0x7d, 0x18, 0x6b, 0xbd,
  0x12, 0x8c, 0xab, 0xbe, 0x93, 0x01, 0x82, 0xbe, 0x58, 0xe6, 0xee, 0xbd,
  0x2f, 0xd8, 0x47, 0xbe, 0x28, 0x0b, 0x36, 0x3d, 0x99, 0xfc, 0xd0, 0xbd,
  0x7e, 0x05, 0x60, 0x3e, 0xec, 0x46, 0x2f, 0x3e, 0x62, 0x09, 0x4b, 0xbe,
  0x41, 0x5b, 0xab, 0xbe, 0x0e, 0x17, 0xfc, 0xbd, 0x03, 0x29, 0x1c, 0x3e,
  0xf9, 0xde, 0x88, 0x3d, 0x4d, 0x99, 0xa9, 0xbe, 0xb4, 0x52, 0xb4, 0x3f,
  0x6c, 0xf0, 0x8c, 0x3e, 0xf7, 0xbe, 0xe3, 0xbd, 0xcd, 0xea, 0x48, 0xbe,
  0x7b, 0x96, 0x42, 0xbe, 0x87, 0xd0, 0x02, 0x3e, 0x4b, 0x9c, 0xb7, 0x3d,
  0xeb, 0xfc, 0xb1, 0xbd, 0x57, 0x0d, 0x9d, 0xbd, 0x1c, 0x1b, 0xd7, 0xbe,
  0x96, 0x43, 0x98, 0x3e, 0xdb, 0xa0, 0x4c, 0xbe, 0xf4, 0xb7, 0xdf, 0x3d,
  0x4a, 0x7d, 0x18, 0x3e, 0xb6, 0xf4, 0xd3, 0x3f, 0xb7, 0x17, 0x6f, 0xbd,
  0x40, 0x8c, 0x47, 0x40, 0x21, 0x11, 0x19, 0xbd, 0x16, 0x05, 0x58, 0x3e,
  0x73, 0xab, 0x21, 0x3e, 0xa0, 0xe3, 0x27, 0x3e, 0xdc, 0xad, 0x58, 0x3e,
  0x3d, 0x3f, 0xda, 0xbd, 0xeb, 0x28, 0xa1, 0x3e, 0xfd, 0x5d, 0xd0, 0x3c,
  0xd9, 0x19, 0x19, 0x3c, 0x91, 0x45, 0x16, 0xbd, 0xad, 0x73, 0xda, 0xbd,
  0x97, 0x3a, 0x19, 0x3e, 0x7b, 0x1c, 0x42, 0x3d, 0x1a, 0x2a, 0x18, 0x40,
  0x59, 0xea, 0xb9, 0x3c, 0x1e, 0xaa, 0x3f, 0x40, 0x7a, 0xbf, 0xc2, 0xbd,
  0x88, 0x70, 0x10, 0x3d, 0xd8, 0xd6, 0x30, 0xbe, 0x0e, 0xa0, 0x5f, 0x3e,
  0xd1, 0x49, 0xdd, 0xbe, 0x67, 0x2b, 0x7b, 0xbd, 0x6d, 0x99, 0x3a, 0x3c,
  0xe3, 0x58, 0x6b, 0x3c, 0xe6, 0xcd, 0xe9, 0xbd, 0xd1, 0xe4, 0x32, 0x3e,
  0x96, 0xc9, 0x63, 0xbe, 0x7c, 0x69, 0xaf, 0xbd, 0x7d, 0x51, 0xd2, 0x3d,
  0xc0, 0x54, 0x03, 0x40, 0x5e, 0x07, 0x27, 0x3e, 0x0d, 0xc5, 0xdd, 0x3f,
  0x2f, 0x6e, 0x35, 0x3d, 0xc5, 0xeb, 0x61, 0xbe, 0xeb, 0xe4, 0xe5, 0xbd,
  0x85, 0x67, 0x51, 0x3e, 0xb0, 0x6e, 0x0c, 0xbe, 0xfb, 0xd4, 0x9a, 0xbd,
  0x20, 0xa4, 0xb4, 0x3d, 0x4e, 0xd8, 0xc8, 0xbd, 0xab, 0x49, 0xaf, 0x3d,
  0xbf, 0x02, 0x2f, 0x3e, 0xec, 0xdd, 0x22, 0xbe, 0x78, 0xb9, 0x58, 0xbe,
  0x55, 0x2d, 0x75, 0x3d, 0x2b, 0xa7, 0xca, 0x3f, 0x86, 0xf2, 0x95, 0x3d,
  0xfb, 0x13, 0x09, 0x40, 0x43, 0x6e, 0x2c, 0xbc, 0xb1, 0xed, 0x73, 0x3d,
  0x67, 0x6e, 0x93, 0xbc, 0x6f, 0x6e, 0x41, 0x3e, 0x39, 0xcd, 0xac, 0xbe,
  0xd6, 0x2c, 0x82, 0xbd, 0xc0, 0xd3, 0x24, 0x3d, 0x32, 0x2f, 0x90, 0x3e,
  0x9d, 0x34, 0x67, 0xbd, 0x69, 0x8b, 0xdc, 0xbc, 0x2e, 0x1b, 0x02, 0x3e,
  0x65, 0xf0, 0xf0, 0x3d, 0xd2, 0x26, 0x23, 0xbe, 0x70, 0xf1, 0xe9, 0x3f,
  0xaa, 0x4b, 0xf2, 0x3c, 0xb9, 0xed, 0x27, 0x40, 0x8e, 0x87, 0xdc, 0x3d,
  0x86, 0x3d, 0x81, 0x3e, 0xaf, 0x8c, 0x6f, 0xbd, 0x34, 0xff, 0x47, 0x3e,
  0x49, 0x91, 0xbd, 0xbd, 0x21, 0x7a, 0x4b, 0xbe, 0x1a, 0x43, 0x33, 0x3e,
  0x48, 0x96, 0xca, 0x3d, 0x0b, 0x91, 0x80, 0xbd, 0xcc, 0x65, 0x6e, 0x3e,
  0xdd, 0x59, 0xdd, 0xbd, 0xbd, 0xd5, 0x73, 0xbd, 0x34, 0xd9, 0x2b, 0xbe,
  0x70, 0x65, 0x5e, 0x3e, 0x89, 0x8d, 0x3d, 0xbd, 0x79, 0xbe, 0x2a, 0x40,
  0xb5, 0x46, 0x6f, 0xbd, 0xd4, 0x3e, 0x9f, 0xbd, 0xa2, 0x4c, 0x83, 0xbd,
  0xa4, 0x85, 0x61, 0xbe, 0x5c, 0xd9, 0x2c, 0xbe, 0xdd, 0x3f, 0x80, 0xbe,
  0x9b, 0xa5, 0x7f, 0x3c, 0x99, 0x25, 0xdb, 0xbd, 0x86, 0x91, 0xaa, 0xbd,
  0x68, 0x9b, 0x0f, 0x3e, 0xca, 0x18, 0x03, 0x3e, 0x78, 0x0a, 0x83, 0x3e,
  0xf5, 0x10, 0xf6, 0xbe, 0x43, 0x0f, 0x9b, 0x3d, 0x92, 0x29, 0xc2, 0x3e,
  0x25, 0x12, 0x45, 0xbe, 0xac, 0xc6, 0xeb, 0x3d, 0xef, 0xc0, 0x90, 0xbd,
  0x68, 0xca, 0xee, 0xbd, 0x23, 0x92, 0x39, 0x3e, 0x19, 0x66, 0x86, 0xbd,
  0xae, 0x5a, 0xe9, 0xbb, 0xde, 0xcd, 0xeb, 0x3d, 0x61, 0x2d, 0xa1, 0xbc,
  0x18, 0xff, 0x62, 0x3d, 0x2e, 0x02, 0x8b, 0x3e, 0xff, 0x9b, 0xa0, 0xbd,
  0x69, 0x37, 0x06, 0xbe, 0xa1, 0xe9, 0x83, 0xbe, 0x3c, 0xba, 0xde, 0xbc,
  0x16, 0x4e, 0x18, 0xbe, 0x34, 0xae, 0x10, 0x3e, 0x0f, 0xf6, 0x80, 0x3e,
  0x28, 0xea, 0xc4, 0xbe, 0xf5, 0x03, 0x40, 0x3d, 0x88, 0x90, 0x43, 0xbe,
  0xa3, 0x19, 0x84, 0xbe, 0x2d, 0xab, 0x58, 0xbe, 0x5c, 0x10, 0xc0, 0x3e,
  0x3f, 0xcb, 0x77, 0x3e, 0xe7, 0x57, 0xb9, 0xbd, 0x4b, 0xa4, 0x86, 0x3e,
  0x7b, 0x54, 0xf5, 0x3d, 0xbc, 0xc3, 0x07, 0xbe, 0x36, 0xde, 0x10, 0xbe,
  0x92, 0x25, 0xbd, 0xbc, 0x64, 0xa3, 0x6c, 0xbe, 0x8c, 0x3d, 0xf9, 0xbd,
  0xf5, 0x76, 0x53, 0xbd, 0x05, 0x1c, 0x49, 0x3c, 0xd0, 0xd9, 0x6e, 0xbd,
  0x01, 0x37, 0x6b, 0xbe, 0x77, 0xaf, 0x67, 0xbe, 0x24, 0x36, 0x3f, 0xbe,
  0xf9, 0x10, 0xc7, 0x3d, 0xfe, 0xb7, 0x10, 0x3e, 0x8c, 0xfd, 0x17, 0xbe,
  0x73, 0x60, 0x28, 0x3e, 0x6b, 0x3c, 0x28, 0x3e, 0xd0, 0x3e, 0x82, 0xbd,
  0x45, 0x97, 0x80, 0xba, 0xfe, 0x93, 0x80, 0xbe, 0xcc, 0x0f, 0x67, 0x3d,
  0x77, 0xdd, 0x53, 0xbc, 0xb6, 0xe8, 0x70, 0xbe, 0xdb, 0x10, 0xc2, 0x3d,
  0x03, 0x1c, 0x16, 0x3e, 0x56, 0xb0, 0x1d, 0xbe, 0xe7, 0x7c, 0x89, 0xbe,
  0x95, 0x5b, 0x6f, 0xbe, 0x6c, 0x6b, 0x19, 0x3e, 0xbd, 0x75, 0xb6, 0xbd,
  0xb3, 0x5c, 0x24, 0xbe, 0x93, 0xac, 0xd0, 0xbd, 0xee, 0xb4, 0x46, 0x3e,
  0xf1, 0x2c, 0xe7, 0xbd, 0x26, 0x35, 0xb4, 0x3d, 0xbe, 0x4f, 0xb8, 0xba,
  0x9a, 0x2e, 0xb1, 0xbd, 0x3d, 0x9b, 0x54, 0xbe, 0xca, 0xcd, 0x54, 0xbc,
  0x64, 0xa5, 0xc8, 0xbd, 0xad, 0x55, 0x2c, 0x3e, 0x05, 0x7c, 0x0d, 0x3e,
  0x47, 0x39, 0x05, 0xbd, 0x42, 0xa4, 0x0c, 0xbe, 0x17, 0xef, 0x4e, 0x3d,
  0x4c, 0xc6, 0x99, 0x3d, 0x68, 0x3c, 0xeb, 0x3c, 0xef, 0xa0, 0x54, 0x3d,
  0x8e, 0xfe, 0x35, 0x3e, 0x91, 0x75, 0x03, 0x3f, 0xc2, 0xe4, 0xad, 0xbc,
  0xe2, 0x18, 0x86, 0xbd, 0xca, 0x96, 0xd9, 0x3e, 0x69, 0x2e, 0x43, 0xbe,
  0xb4, 0x57, 0x8e, 0xbe, 0xe7, 0xcb, 0xd9, 0xbd, 0x84, 0x6d, 0xe1, 0x3e,
  0x84, 0x38, 0x4c, 0x3d, 0x9d, 0x49, 0x81, 0x3e, 0x07, 0xfc, 0x7e, 0xbd,
  0xe4, 0x28, 0xf7, 0xbd, 0x0d, 0xdd, 0x15, 0xbd, 0x1f, 0x45, 0x13, 0xbd,
  0xf0, 0x66, 0x35, 0xbe, 0xe9, 0x6c, 0x57, 0x3d, 0xef, 0x0f, 0x7e, 0x3d,
  0xd9, 0x12, 0xcf, 0xbc, 0x40, 0x1c, 0x84, 0x3d, 0x55, 0xf4, 0x84, 0x3a,
  0xb0, 0x01, 0x6b, 0x3e, 0xe6, 0xf0, 0x5f, 0xbd, 0x12, 0x68, 0x91, 0x3d,
  0x9f, 0x84, 0x83, 0xbd, 0xaa, 0x39, 0x67, 0x3d, 0xec, 0xaf, 0xc7, 0xbe,
  0xc7, 0xe6, 0x2c, 0xbd, 0x47, 0xa4, 0x9e, 0xbe, 0x43, 0x5a, 0x4d, 0xbd,
  0xb5, 0xba, 0xfa, 0x3a, 0x77, 0x72, 0x29, 0xbd, 0x9c, 0x0b, 0x2a, 0xbe,
  0x76, 0x7b, 0x4c, 0xbe, 0x97, 0x00, 0xe4, 0xbd, 0x28, 0x01, 0x78, 0xbe,
  0xd9, 0xfc, 0x34, 0xbd, 0xaf, 0x67, 0x59, 0x3d, 0x62, 0x1c, 0x74, 0xbe,
  0xab, 0x18, 0xf4, 0x3c, 0x18, 0xb3, 0x47, 0x3e, 0x67, 0x94, 0x1d, 0xbd,
  0xfc, 0x84, 0x36, 0xbe, 0xaa, 0x49, 0xcf, 0xbc, 0x51, 0xc3, 0x54, 0x3e,
  0xe7, 0x7f, 0xca, 0x3e, 0x69, 0xba, 0x61, 0x3e, 0xf6, 0x73, 0x51, 0x3d,
  0xc0, 0x02, 0xcc, 0x3e, 0xf6, 0xc8, 0xd2, 0x3c, 0x9f, 0xfe, 0xf9, 0xbd,
  0x90, 0xad, 0x19, 0xbe, 0x9f, 0x5d, 0x9e, 0x3e, 0x45, 0x7d, 0x31, 0x3d,
  0x17, 0xc1, 0xea, 0xbd, 0x8a, 0xae, 0x49, 0x3d, 0x7b, 0x76, 0xa0, 0x3e,
  0x15, 0xaa, 0x16, 0x3e, 0x73, 0x6b, 0x88, 0x3c, 0xea, 0xdb, 0x63, 0xbd,
  0xed, 0xaf, 0xb1, 0x3e, 0x94, 0x0f, 0x39, 0x3f, 0x01, 0x22, 0x40, 0x3e,
  0x21, 0x84, 0x19, 0x3e, 0x12, 0xaf, 0x93, 0x3e, 0x29, 0xb5, 0x7f, 0xbe,
  0x29, 0xc0, 0x56, 0x3d, 0x4a, 0x52, 0x21, 0xbd, 0xbe, 0x50, 0x81, 0x3e,
  0xe6, 0x44, 0xa9, 0xbd, 0x2f, 0xa0, 0x94, 0x3e, 0x31, 0xdc, 0x5a, 0x3e,
  0xfe, 0xb1, 0x9c, 0x3e, 0x78, 0x50, 0x06, 0xbd, 0x4c, 0x33, 0x8c, 0x3d,
  0x5d, 0xc6, 0x27, 0x3d, 0xcb, 0x9f, 0x34, 0xbd, 0x4e, 0x0a, 0xd6, 0x3e,
  0x78, 0x03, 0xde, 0x3e, 0x0a, 0x13, 0x90, 0x3b, 0x3d, 0x19, 0xe0, 0x3e,
  0x98, 0x62, 0xa3, 0xbc, 0xa2, 0x1c, 0x60, 0xbe, 0x0e, 0x43, 0x3b, 0xbd,
  0x03, 0x0a, 0x12, 0x3e, 0x41, 0x55, 0x58, 0xbe, 0xfa, 0x8a, 0xeb, 0x3e,
  0xc2, 0x5e, 0x9b, 0x3d, 0xf2, 0xd8, 0x95, 0xbb, 0x9c, 0x45, 0x98, 0x3e,
  0x58, 0x9c, 0x92, 0x3e, 0x94, 0x47, 0x40, 0x3e, 0xde, 0x65, 0x18, 0x3d,
  0x43, 0x69, 0x01, 0x3e, 0xb0, 0x3b, 0x95, 0x3e, 0xae, 0xf5, 0x99, 0x3e,
  0x6e, 0x9a, 0x1d, 0x3e, 0x5e, 0xdd, 0x23, 0xbe, 0xd1, 0x23, 0x74, 0x3c,
  0x39, 0x01, 0xd1, 0xbe, 0x9f, 0x34, 0x00, 0xbd, 0x05, 0x29, 0x57, 0xbe,
  0xcc, 0x67, 0xb4, 0x3e, 0xf9, 0x34, 0xe8, 0x3d, 0x1b, 0x57, 0xd7, 0x3d,
  0xbf, 0xea, 0xb1, 0x3d, 0xa9, 0x74, 0x33, 0x3e, 0xe8, 0x41, 0x8f, 0xbd,
  0x2d, 0x75, 0x80, 0x3e, 0x52, 0x67, 0x09, 0x3f, 0x00, 0x24, 0x16, 0x3e,
  0x52, 0x03, 0xc5, 0x3e, 0x72, 0x09, 0x93, 0x3d, 0x71, 0x57, 0x80, 0xbe,
  0x09, 0xca, 0x68, 0xbe, 0xea, 0xf2, 0x47, 0xbd, 0xd3, 0xce, 0xcf, 0xbd,
  0xa8, 0x06, 0xa7, 0xbe, 0x3d, 0x20, 0xfb, 0xbc, 0xec, 0x42, 0xa1, 0xbc,
  0x0e, 0x4e, 0x76, 0xbe, 0xcd, 0x11, 0xbe, 0xbd, 0x7e, 0x87, 0x70, 0x3d,
  0x0e, 0xb6, 0x0d, 0x3d, 0x18, 0x77, 0xda, 0x3c, 0x11, 0xc0, 0x29, 0x3f,
  0x61, 0x28, 0x54, 0xbe, 0x39, 0xe7, 0xf6, 0xbe, 0xec, 0xe5, 0x85, 0x3d,
  0x28, 0x6e, 0xf3, 0xbe, 0x23, 0x2e, 0x8f, 0xbe, 0xbc, 0xd4, 0xc0, 0x3e,
  0xbb, 0xf3, 0xb7, 0xbd, 0x66, 0xad, 0x77, 0xbe, 0x6a, 0xdf, 0x2b, 0x3d,
  0x75, 0x0a, 0xb0, 0xbe, 0xb0, 0x7c, 0x8d, 0xbe, 0xbb, 0xca, 0xb2, 0xbe,
  0xb5, 0x22, 0xe4, 0x3b, 0x87, 0x33, 0xb6, 0x3a, 0x32, 0x60, 0x90, 0xbe,
  0x80, 0x4c, 0x75, 0x3e, 0x48, 0x5d, 0x99, 0xbd, 0xae, 0x07, 0xec, 0xbc,
  0x61, 0x5f, 0xad, 0xbd, 0x71, 0x45, 0x2a, 0xbe, 0xdc, 0xab, 0x19, 0xbe,
  0x91, 0xf0, 0x00, 0x3e, 0x0a, 0x27, 0x12, 0x3c, 0xdc, 0x0c, 0x63, 0xbe,
  0xde, 0xc1, 0xd6, 0xbd, 0x31, 0xc1, 0xe7, 0xbd, 0x53, 0x15, 0x3d, 0x3e,
  0xea, 0x17, 0x94, 0xbe, 0xd6, 0x9b, 0x91, 0xbd, 0x84, 0xb8, 0x18, 0xbd,
  0xfa, 0xe9, 0xc6, 0x3e, 0x14, 0x47, 0xa1, 0x3e, 0xa3, 0x1e, 0xbf, 0x3d,
  0x41, 0x6b, 0xd1, 0x3e, 0xfe, 0xba, 0xb4, 0x3b, 0x52, 0x9f, 0xd1, 0x3d,
  0x3a, 0xa7, 0x95, 0xbc, 0xf1, 0x5b, 0xa1, 0xbe, 0x81, 0x59, 0x29, 0x3b,
  0xf3, 0xe5, 0xf6, 0xbd, 0x6a, 0x6b, 0x66, 0xbe, 0x66, 0x72, 0x51, 0xbc,
  0xfe, 0x79, 0x5f, 0x3e, 0x07, 0x5d, 0x55, 0x3e, 0x06, 0x3e, 0x2c, 0x3d,
  0xfc, 0xb2, 0x6a, 0x3e, 0x10, 0xdd, 0x3b, 0x3e, 0xd3, 0xe8, 0x31, 0x3f,
  0xe2, 0x49, 0xff, 0x3e, 0x9d, 0x16, 0xe3, 0x3d, 0x13, 0x10, 0x13, 0x3d,
  0x85, 0x38, 0x2c, 0x3e, 0x67, 0x55, 0xda, 0xbd, 0xb7, 0x69, 0xf8, 0x3d,
  0xc3, 0xe8, 0xdf, 0x3e, 0xa4, 0xfe, 0x3c, 0xbe, 0x75, 0x60, 0x7a, 0x3e,
  0x27, 0x82, 0x26, 0x3d, 0xae, 0xe0, 0x29, 0x3e, 0x2b, 0x63, 0xa6, 0xbb,
  0xf2, 0x21, 0x81, 0xba, 0xe1, 0x54, 0xad, 0x3e, 0x64, 0x7f, 0x0f, 0xbe,
  0xb3, 0x56, 0x98, 0x3e, 0x70, 0x69, 0xa9, 0x3e, 0xc6, 0xb8, 0x5d, 0x3e,
  0xb8, 0x20, 0x32, 0x3e, 0x24, 0xbe, 0x26, 0x3d, 0x03, 0xc7, 0x96, 0xbc,
  0xac, 0x21, 0x71, 0x3d, 0x47, 0x1a, 0xe2, 0x3d, 0x73, 0x0e, 0x8c, 0xbe,
  0x06, 0x1a, 0x22, 0x3e, 0x28, 0x7f, 0xa4, 0x3d, 0xd9, 0xee, 0xf3, 0x3e,
  0x89, 0xef, 0x80, 0x3e, 0x3b, 0x27, 0x25, 0x3e, 0x9b, 0x0b, 0x16, 0xbc,
  0x79, 0x24, 0x44, 0x3e, 0x2f, 0xb2, 0x75, 0x3e, 0x48, 0xe5, 0xbe, 0x3e,
  0x29, 0x1f, 0xd5, 0x3e, 0x4b, 0x86, 0xf9, 0x3d, 0x09, 0x43, 0xd6, 0x3d,
  0xad, 0x5c, 0x6f, 0xbe, 0x25, 0x15, 0x06, 0xbe, 0xbc, 0x37, 0x24, 0x3e,
  0xd9, 0xbc, 0x45, 0xbe, 0x14, 0x52, 0xd8, 0x3d, 0x91, 0x22, 0x99, 0x3e,
  0xce, 0x1e, 0x3c, 0x3e, 0x5c, 0xf5, 0x19, 0x3e, 0x52, 0x92, 0x06, 0x3d,
  0x9f, 0xc5, 0xdc, 0xbd, 0xdb, 0xd7, 0x03, 0xbe, 0xa6, 0x77, 0xae, 0x3e,
  0x3f, 0x4e, 0xfd, 0x3d, 0xc5, 0x8d, 0x46, 0x3e, 0xfb, 0xf1, 0xd1, 0x3c,
  0xc4, 0x08, 0x8d, 0xbe, 0xf2, 0xab, 0x34, 0xbe, 0x09, 0x64, 0x09, 0xbf,
  0x57, 0x24, 0xa1, 0xbc, 0x3c, 0xb4, 0xa6, 0xbe, 0x03, 0x17, 0x02, 0x3f,
  0x21, 0xe7, 0x5c, 0x3e, 0x59, 0x52, 0x26, 0xbc, 0x9d, 0xc3, 0x08, 0xbd,
  0x8f, 0x79, 0x6b, 0xbd, 0x4d, 0x67, 0x0a, 0xbe, 0x5d, 0x32, 0xf5, 0x3c,
  0x9d, 0xa9, 0x04, 0x3f, 0x2a, 0x35, 0x86, 0xbd, 0x33, 0x85, 0x80, 0xbe,
  0x99, 0x22, 0x46, 0x3d, 0x1c, 0x9b, 0x10, 0xbe, 0xde, 0xab, 0x43, 0xbe,
  0x08, 0xba, 0x97, 0x3d, 0xc3, 0x28, 0x8e, 0xbd, 0xc1, 0x61, 0x1e, 0x3e,
  0x68, 0x36, 0x87, 0x3d, 0x72, 0xf7, 0x7e, 0xbe, 0x06, 0x09, 0x66, 0xbe,
  0xb0, 0x27, 0x83, 0xbe, 0xa3, 0x64, 0x14, 0xbd, 0x1f, 0xbd, 0x90, 0xbd,
  0x2f, 0x50, 0x0f, 0xbe, 0xab, 0x92, 0xe0, 0x3d, 0x1c, 0xb6, 0x0a, 0xbe,
  0x62, 0xe8, 0x3f, 0x3e, 0x76, 0x0e, 0x2c, 0xbe, 0xc1, 0x3a, 0x46, 0xbe,
  0x6d, 0xbe, 0xc6, 0xbe, 0xe6, 0x7f, 0xa9, 0xbe, 0xae, 0x53, 0x82, 0xbd,
  0xbe, 0x07, 0x24, 0xbe, 0x51, 0x54, 0xbe, 0xbe, 0xd0, 0x47, 0x60, 0xbe,
  0x7e, 0xfe, 0x29, 0x3e, 0x1d, 0x5d, 0xa9, 0xbd, 0x6a, 0x8a, 0x27, 0xbe,
  0xb5, 0x30, 0x55, 0xbd, 0x54, 0xec, 0x91, 0x3e, 0x8a, 0x54, 0x12, 0x3f,
  0x1a, 0x0b, 0xfe, 0x3d, 0xb3, 0x5c, 0xa8, 0xbd, 0x11, 0x7c, 0x8c, 0x3e,
  0x2a, 0x12, 0x59, 0xbe, 0xb9, 0x69, 0x34, 0xbe, 0x23, 0xdd, 0x3b, 0xbe,
  0xda, 0x50, 0x91, 0x3d, 0xd9, 0x41, 0x9c, 0xbe, 0xd6, 0x2a, 0x0a, 0xbe,
  0x82, 0xdc, 0x5b, 0xbe, 0xd6, 0x05, 0x38, 0x3e, 0x6c, 0xc3, 0xda, 0x3e,
  0x0b, 0x40, 0x26, 0xbc, 0xe7, 0x2d, 0xf9, 0x3d, 0xfe, 0xe3, 0x7e, 0x3e,
  0x36, 0xf4, 0xa5, 0x3e, 0x18, 0x46, 0xaf, 0x3e, 0xcd, 0x1b, 0xb8, 0x39,
  0xf0, 0xec, 0xac, 0x3c, 0x6a, 0xde, 0x87, 0xbe, 0x60, 0xd8, 0x8a, 0x3d,
  0x4a, 0x32, 0xde, 0xbd, 0xc3, 0x28, 0x40, 0x3e, 0x35, 0xdd, 0x3b, 0xbe,
  0x00, 0xe8, 0x05, 0x3d, 0x7b, 0x05, 0x25, 0x3e, 0x9f, 0x72, 0x24, 0x3d,
  0xa3, 0xe5, 0x80, 0x3e, 0x4a, 0x06, 0x3a, 0xbd, 0x47, 0x88, 0xfe, 0xbd,
  0xe8, 0xb7, 0x34, 0x3b, 0xf0, 0x52, 0x05, 0x3f, 0x54, 0x04, 0xee, 0x3e,
  0x04, 0xb5, 0x03, 0x3e, 0x79, 0xb3, 0x59, 0x3d, 0x17, 0xb9, 0x8e, 0xbe,
  0xb7, 0xb7, 0x72, 0x3c, 0x49, 0xe8, 0x8f, 0xbe, 0x78, 0xae, 0xb5, 0x3e,
  0x44, 0x46, 0xa5, 0xbe, 0x19, 0x6d, 0x6c, 0xbc, 0xe0, 0xe6, 0x5f, 0x3e,
  0x75, 0x85, 0xed, 0xbd, 0x3b, 0x07, 0x68, 0x3e, 0x15, 0x98, 0x15, 0x3e,
  0x6d, 0x75, 0x18, 0x3d, 0x8c, 0xf7, 0x40, 0x3c, 0x15, 0x04, 0x5b, 0x3e,
  0x0e, 0x53, 0x85, 0x3e, 0xd2, 0x69, 0x50, 0x3d, 0x1f, 0x16, 0x7b, 0x3e,
  0x13, 0xb0, 0x27, 0xbe, 0x36, 0x82, 0x85, 0xbd, 0xd0, 0xf2, 0x2d, 0xbd,
  0xdb, 0xc6, 0xe8, 0x3e, 0x58, 0x27, 0x10, 0xbe, 0xdb, 0xba, 0x69, 0x3e,
  0x51, 0xc7, 0x9a, 0x3d, 0x59, 0x13, 0xe0, 0x3b, 0x8f, 0xce, 0x72, 0x3d,
  0x63, 0x35, 0x5a, 0x3e, 0xe8, 0xad, 0x34, 0x3e, 0x03, 0xa4, 0x09, 0x3f,
  0x9a, 0x9c, 0xd2, 0x3e, 0xe0, 0x55, 0xd7, 0xbc, 0x7d, 0x2f, 0xeb, 0x3e,
  0xf9, 0x4c, 0xfc, 0x3c, 0xe6, 0x88, 0xfd, 0xbc, 0xac, 0xe9, 0x9a, 0xbd,
  0x11, 0x2e, 0x95, 0xbe, 0x68, 0x69, 0x79, 0xba, 0x70, 0xee, 0xc2, 0xbe,
  0x91, 0x12, 0xaf, 0x3e, 0xa4, 0x3a, 0x98, 0xbc, 0x42, 0xa1, 0x34, 0xbe,
  0x95, 0x7b, 0x0f, 0xbd, 0xd5, 0xab, 0x37, 0xbd, 0xb9, 0x8c, 0x21, 0x3e,
  0x36, 0x37, 0x0f, 0x3f, 0xee, 0xfb, 0x0f, 0x3f, 0x41, 0xab, 0x99, 0xbe,
  0xdf, 0x07, 0xa5, 0xbe, 0x07, 0x09, 0x84, 0x3c, 0xf2, 0x8d, 0xf7, 0x3b,
  0x5c, 0x3c, 0x27, 0xbe, 0xe3, 0xe0, 0xaf, 0x3e, 0x3d, 0x67, 0x1d, 0x3e,
  0x01, 0xb2, 0x0a, 0xbd, 0xd8, 0x10, 0x9c, 0xba, 0x0c, 0x0a, 0xf5, 0xbd,
  0x44, 0x46, 0xcd, 0xbe, 0xe1, 0x14, 0x88, 0xbe, 0x4b, 0x0c, 0xce, 0xbd,
  0x2d, 0xfc, 0x5b, 0xbd, 0x4e, 0xe3, 0xd6, 0xbd, 0xcb, 0x44, 0x0a, 0xbb,
  0xa2, 0x5d, 0x30, 0xbe, 0x15, 0x4c, 0xca, 0xbd, 0xd6, 0xe7, 0x46, 0xbe,
  0x53, 0x4f, 0xa2, 0xbe, 0xd6, 0xb5, 0x8b, 0xbd, 0x3e, 0x79, 0x88, 0x3f,
  0x63, 0x04, 0x55, 0xbe, 0x6b, 0x92, 0x3f, 0x3f, 0x11, 0x13, 0xcf, 0xbd,
  0x54, 0xc0, 0xcd, 0xbe, 0x63, 0xaf, 0x0e, 0x3d, 0x60, 0x20, 0x4b, 0xbe,
  0x0a, 0xce, 0xc8, 0xbd, 0x45, 0x7c, 0x0e, 0xbd, 0xa7, 0x75, 0xba, 0x3d,
  0x47, 0x96, 0xbf, 0xbe, 0xc7, 0xea, 0x39, 0x3c, 0xe8, 0x8b, 0x43, 0x3c,
  0x9b, 0x45, 0xd7, 0xbe, 0x86, 0x64, 0xc9, 0xbe, 0xd2, 0x82, 0xdd, 0xbd,
  0xf4, 0x46, 0x65, 0x3f, 0xaf, 0x24, 0xfd, 0x3c, 0x9e, 0xf1, 0x68, 0x3f,
  0x21, 0xcb, 0x31, 0xbe, 0x0e, 0x59, 0x33, 0xbe, 0x08, 0x71, 0x01, 0xbe,
  0xde, 0x4d, 0xb5, 0xbe, 0xa7, 0x33, 0x51, 0xbd, 0x22, 0x36, 0x6c, 0xbc,
  0x4b, 0xf9, 0x03, 0x3d, 0x6e, 0x75, 0x20, 0xbe, 0xf6, 0x27, 0x03, 0x3e,
  0xeb, 0x94, 0x11, 0x3c, 0x6f, 0xc6, 0x43, 0xbe, 0xa4, 0x1c, 0xb9, 0xbe,
  0x0f, 0x7d, 0xa7, 0xbe, 0x2d, 0xd9, 0x58, 0x3f, 0xea, 0x4b, 0xf1, 0xbd,
  0x1f, 0x12, 0x51, 0x3f, 0x78, 0xdc, 0x09, 0xbe, 0xab, 0x83, 0xdc, 0xbc,
  0xf2, 0xb1, 0x78, 0xbe, 0x32, 0xce, 0x61, 0xbe, 0xff, 0x90, 0x0e, 0xbe,
  0xee, 0x90, 0x36, 0x3c, 0x17, 0xfa, 0x0b, 0xbe, 0x9c, 0x9b, 0x00, 0x3e,
  0xcd, 0x46, 0x6a, 0xbe, 0x46, 0x4a, 0xa2, 0x3c, 0x04, 0x2a, 0x80, 0xbd,
  0x37, 0x5f, 0x38, 0xbe, 0x05, 0x43, 0x89, 0xbe, 0xdf, 0x20, 0x18, 0x3f,
  0x41, 0xed, 0xf0, 0xbd, 0x32, 0xa5, 0x70, 0x3f, 0xfa, 0xc5, 0x48, 0xbe,
  0xd5, 0x6e, 0xa4, 0xbd, 0x19, 0xaf, 0xca, 0xbd, 0x02, 0x1f, 0x81, 0xbe,
  0xd1, 0x10, 0x2e, 0xbe, 0x84, 0xc7, 0xb2, 0xbc, 0xe8, 0xd7, 0x7e, 0x3d,
  0xea, 0x54, 0x87, 0xbd, 0x58, 0x34, 0x27, 0xbe, 0x67, 0xfd, 0x91, 0x3d,
  0x4d, 0xfc, 0xdc, 0xbe, 0x2f, 0x0a, 0xd8, 0x3d, 0xed, 0x4c, 0xef, 0xbd,
  0xa5, 0x58, 0x2e, 0x3f, 0x0d, 0xf8, 0x8c, 0x3d, 0x6f, 0x79, 0x68, 0x3f,
  0x7c, 0x99, 0x4f, 0xbe, 0x55, 0xc4, 0x1f, 0xbe, 0x25, 0x5f, 0x01, 0xbe,
  0xd4, 0x5c, 0x9a, 0xbe, 0x9e, 0x52, 0x04, 0xbe, 0x1e, 0x92, 0xf2, 0xbd,
  0x55, 0x02, 0x4f, 0xbe, 0x57, 0x71, 0x1c, 0xbd, 0xfe, 0x9e, 0xd1, 0x3c,
  0xf7, 0x03, 0x64, 0xbe, 0x20, 0xd1, 0x10, 0x3c, 0x5f, 0xa0, 0x5c, 0xbd,
  0x25, 0x57, 0x69, 0xbd, 0x9c, 0x8a, 0x97, 0x3f, 0x56, 0x22, 0xa2, 0x3c,
  0x0e, 0xe6, 0x8c, 0x3f, 0x58, 0xe9, 0x97, 0xbe, 0x7c, 0x85, 0x19, 0x3d,
  0x12, 0x31, 0x16, 0x3e, 0xa3, 0xb4, 0xdb, 0x3c, 0x39, 0x1b, 0x05, 0x3e,
  0x90, 0x38, 0x65, 0xbd, 0x25, 0xfc, 0x35, 0x3e, 0x15, 0x56, 0xaf, 0xbe,
  0x87, 0xa8, 0x21, 0x3e, 0xa3, 0xb4, 0x21, 0x3e, 0x26, 0xc3, 0x0b, 0x3e,
  0x4a, 0xb0, 0x94, 0x3d, 0xb6, 0x00, 0x73, 0x3c, 0x3e, 0x37, 0x44, 0xbe,
  0x44, 0x68, 0xf2, 0x3d, 0x33, 0xd7, 0x7b, 0x3f, 0x21, 0xe1, 0xc7, 0xbd,
  0xca, 0x54, 0xda, 0x3d, 0xca, 0x62, 0x77, 0x3e, 0xf7, 0xbe, 0xcb, 0x3d,
  0x29, 0xd6, 0xca, 0xbd, 0x26, 0x26, 0xa9, 0x3d, 0xef, 0xe5, 0x92, 0x3d,
  0xc3, 0x12, 0x11, 0xbd, 0x8e, 0xf2, 0x49, 0xbd, 0xcc, 0xcc, 0x85, 0x3e,
  0x2e, 0xee, 0x25, 0xbe, 0x5a, 0x73, 0xca, 0x3c, 0xa0, 0x10, 0x3e, 0xbe,
  0xac, 0x93, 0x66, 0x3d, 0xbf, 0x6d, 0x02, 0xbd, 0xcc, 0xfd, 0xa4, 0x3d,
  0x0b, 0x08, 0x44, 0x3d, 0xf4, 0x87, 0x8e, 0xbc, 0xdf, 0xff, 0x46, 0x3e,
  0xc8, 0xee, 0x08, 0x3e, 0xdd, 0x40, 0xd1, 0xbd, 0xba, 0x6c, 0x96, 0xbe,
  0x7a, 0x95, 0xfe, 0x3d, 0x32, 0x5c, 0xd5, 0x3e, 0x3b, 0xdb, 0xfe, 0xbb,
  0x05, 0x20, 0x64, 0x3e, 0x97, 0xc4, 0x66, 0x3e, 0x2f, 0x70, 0x98, 0x3e,
  0xcb, 0xd9, 0x4f, 0xbe, 0x46, 0xc5, 0x3f, 0xbe, 0x7e, 0x7b, 0x50, 0x3e,
  0xd9, 0x9c, 0x82, 0xbe, 0x85, 0xa1, 0xac, 0x3c, 0xaf, 0x0a, 0xc6, 0x3d,
  0x94, 0x40, 0xd1, 0x3d, 0x9b, 0x6f, 0x3b, 0x3e, 0x71, 0x37, 0xc7, 0xbd,
  0xc9, 0x98, 0x46, 0x3e, 0x2e, 0x5f, 0x1a, 0xbe, 0xef, 0x14, 0x51, 0x3e,
  0x37, 0x34, 0x93, 0x3c, 0xfb, 0x43, 0x34, 0x3e, 0x99, 0x10, 0xe4, 0x3d,
  0x8b, 0x17, 0x95, 0x3e, 0xb9, 0xd0, 0xef, 0x3d, 0xa2, 0x1e, 0x25, 0xbe,
  0xd6, 0xdf, 0x99, 0x3e, 0x24, 0x6d, 0xbf, 0xbd, 0xf5, 0x91, 0x76, 0x3d,
  0x75, 0xd0, 0x63, 0xbd, 0x0a, 0xe7, 0xa8, 0x3d, 0x32, 0x62, 0x03, 0x3e,
  0x88, 0xa3, 0xca, 0x3c, 0x9f, 0x36, 0x8c, 0xbc, 0x06, 0xf9, 0xf4, 0x3e,
  0x51, 0x20, 0xd7, 0x3e, 0x73, 0x4a, 0x66, 0xbb, 0x13, 0x0a, 0x02, 0x3e,
  0x7a, 0x88, 0xa0, 0x3e, 0x67, 0xbb, 0x60, 0xbc, 0x97, 0x3c, 0x94, 0xbd,
  0x49, 0x50, 0x3c, 0xbe, 0x77, 0x79, 0x17, 0x3e, 0x8e, 0xa4, 0xa1, 0xbe,
  0x05, 0xca, 0xdd, 0x3d, 0xa8, 0x8d, 0x09, 0x3d, 0x95, 0x66, 0x3f, 0xbe,
  0x73, 0x4b, 0x3d, 0x3e, 0xde, 0x8b, 0x50, 0x3e, 0x64, 0x87, 0x09, 0xbe,
  0xdd, 0x7f, 0xf1, 0x3e, 0xff, 0xe7, 0xdd, 0x3e, 0x62, 0x3c, 0x17, 0x3e,
  0x45, 0x97, 0xed, 0x3e, 0xbb, 0x4d, 0x2f, 0x3e, 0x7e, 0x90, 0x95, 0xbd,
  0xcb, 0x0f, 0x23, 0x3e, 0x7a, 0x65, 0x85, 0xbd, 0xff, 0x20, 0x5c, 0xbd,
  0x8c, 0xd2, 0xd9, 0x3d, 0xd5, 0x21, 0xf2, 0x3d, 0x7b, 0x7d, 0x16, 0x3e,
  0xa0, 0x52, 0xe8, 0x3d, 0xe0, 0xea, 0x46, 0x3e, 0xa9, 0xfa, 0x4b, 0xbe,
  0x2b, 0x6f, 0xfe, 0xbd, 0x5b, 0x9c, 0xad, 0x3e, 0x6a, 0x4d, 0x8b, 0x3e,
  0x61, 0xea, 0x37, 0x3b, 0x57, 0xf1, 0xd8, 0x3d, 0x57, 0xa9, 0x13, 0x3e,
  0x20, 0x67, 0x7f, 0xbe, 0xed, 0xd3, 0x0f, 0xbe, 0xb8, 0xe5, 0xa2, 0x3d,
  0x0b, 0xcc, 0x40, 0xbe, 0x1d, 0xd5, 0x3a, 0xbe, 0xb1, 0xc6, 0xbc, 0x3d,
  0x5c, 0x8e, 0x3e, 0x3e, 0x2c, 0x4f, 0xa3, 0xbc, 0x84, 0x9e, 0xc3, 0x3d,
  0x3b, 0x72, 0xfa, 0xbd, 0xcd, 0x50, 0xa3, 0xbd, 0x7a, 0xb9, 0x13, 0x3f,
  0xae, 0x03, 0x09, 0x3f, 0x5c, 0xc9, 0x15, 0xbe, 0x55, 0xef, 0x70, 0xbe,
  0xb5, 0x3b, 0x96, 0x3b, 0xac, 0xba, 0xa7, 0x3c, 0x1c, 0xed, 0x7b, 0xbe,
  0x43, 0xc9, 0x83, 0x3e, 0xab, 0x45, 0x8e, 0xbd, 0x28, 0x5a, 0x27, 0xbe,
  0x80, 0xd6, 0xba, 0xbd, 0xff, 0x05, 0xce, 0xbd, 0xfe, 0x1c, 0xd4, 0xbd,
  0x20, 0xf5, 0x80, 0xbd, 0x27, 0x9e, 0x67, 0xba, 0x56, 0xdb, 0xb2, 0xbd,
  0x6e, 0x89, 0x21, 0x3d, 0xf7, 0x75, 0x0d, 0x3d, 0xe4, 0x06, 0xce, 0x3d,
  0xd9, 0xdd, 0x78, 0xbd, 0x76, 0x24, 0x1a, 0x3e, 0x1f, 0x0b, 0x86, 0x3e,
  0x2a, 0x16, 0xa0, 0xbe, 0xbb, 0x15, 0x97, 0x3e, 0x50, 0x75, 0x8f, 0x3e,
  0x97, 0x28, 0x5c, 0x3e, 0x26, 0x8f, 0x78, 0x3e, 0xf8, 0xbe, 0x6c, 0x3e,
  0x3a, 0x20, 0x17, 0xbe, 0x39, 0xd2, 0xe6, 0x3e, 0x7b, 0xf6, 0x11, 0xbc,
  0x52, 0xd3, 0xc0, 0x3d, 0xa1, 0xfb, 0xd1, 0xbd, 0x72, 0x25, 0x5e, 0x3e,
  0x2c, 0xa4, 0xb5, 0xbd, 0x42, 0x9c, 0xa4, 0xbb, 0xe1, 0x01, 0x51, 0xbe,
  0x23, 0xe0, 0x81, 0xbd, 0x1c, 0xfc, 0xab, 0x3d, 0x38, 0xec, 0x44, 0x3e,
  0x77, 0x78, 0x6f, 0xbe, 0xbf, 0x58, 0xb1, 0x3f, 0xe1, 0x9f, 0xdf, 0x3d,
  0x57, 0x1d, 0x06, 0xbe, 0x8c, 0x79, 0xc8, 0xbc, 0x9e, 0x89, 0x2f, 0xbe,
  0xc2, 0x75, 0xd6, 0x3a, 0x01, 0x85, 0xcb, 0xbd, 0xe3, 0x7b, 0x62, 0xbd,
  0xde, 0xe0, 0xee, 0x3d, 0x26, 0x69, 0x44, 0xbe, 0xb2, 0x3b, 0xa9, 0x3d,
  0xef, 0x52, 0x7d, 0xbe, 0x3b, 0x93, 0x19, 0x3d, 0x95, 0x0a, 0xb0, 0x3d,
  0xcf, 0x65, 0x5e, 0x3e, 0x0b, 0x83, 0x32, 0xbe, 0xa6, 0xd9, 0x9f, 0x3f,
  0x09, 0xe9, 0x3b, 0xbe, 0x35, 0x9b, 0x59, 0xbe, 0x91, 0xe5, 0x0a, 0x3d,
  0xee, 0xb5, 0xed, 0x3c, 0x1c, 0xcf, 0x05, 0xbe, 0xf3, 0x5f, 0x00, 0xbe,
  0xdf, 0x8e, 0x4e, 0x3e, 0x14, 0x54, 0x9d, 0x3e, 0xda, 0x7a, 0x68, 0xbe,
  0x87, 0x5e, 0x41, 0x3e, 0xb4, 0xc5, 0x0a, 0xbe, 0x63, 0x32, 0xb4, 0xbc,
  0x72, 0x72, 0x56, 0x3d, 0xe9, 0xae, 0xcb, 0xbb, 0xda, 0x1f, 0x06, 0x3d,
  0x7a, 0x9b, 0x30, 0x3f, 0x9b, 0x41, 0x46, 0xbe, 0x56, 0x8e, 0xa0, 0x3c,
  0x5e, 0xb5, 0xb2, 0x3d, 0xeb, 0x3d, 0xa4, 0xbc, 0xf2, 0x00, 0x45, 0x3c,
  0x0d, 0x7a, 0x20, 0xbe, 0xca, 0xaa, 0x4e, 0x3e, 0x30, 0x0c, 0x16, 0xbe,
  0x27, 0xde, 0x2b, 0xbd, 0x40, 0xe3, 0x2b, 0x3e, 0x14, 0xf1, 0x3f, 0xbe,
  0x4e, 0x6f, 0xd7, 0xbd, 0xc4, 0x79, 0x88, 0x3d, 0x42, 0x09, 0xda, 0x3e,
  0x76, 0xee, 0xcf, 0x3d, 0x08, 0x3b, 0x77, 0x3f, 0xd4, 0x2f, 0x06, 0x3d,
  0x11, 0x87, 0xad, 0xbd, 0x0b, 0x0b, 0x97, 0x3d, 0x53, 0xd2, 0x81, 0x3d,
  0xae, 0x30, 0x1f, 0x3b, 0xd9, 0x64, 0xd6, 0xbd, 0x19, 0xff, 0x43, 0x3e,
  0x6a, 0xb2, 0x33, 0x3d, 0x16, 0xda, 0x10, 0x3b, 0x36, 0xd3, 0xc8, 0x3c,
  0xef, 0xef, 0x47, 0x3e, 0xf0, 0x7e, 0x1e, 0x3e, 0xa3, 0xed, 0xf7, 0xbd,
  0xa5, 0x14, 0x7f, 0x3e, 0x5c, 0x31, 0x47, 0x3e, 0xe9, 0x72, 0x74, 0x3f,
  0x0e, 0x8b, 0xcd, 0x3c, 0x34, 0xe0, 0xb6, 0xbd, 0x5e, 0x6c, 0xb4, 0x3e,
  0x2d, 0xd7, 0x55, 0xbe, 0x59, 0x37, 0x9a, 0xbc, 0x48, 0x9c, 0x83, 0xbd,
  0x8f, 0x9a, 0x35, 0xbd, 0x41, 0xc7, 0x29, 0xbd, 0xc2, 0xf6, 0x7b, 0x3d,
  0x54, 0x6e, 0x21, 0x3e, 0xab, 0x6b, 0x62, 0x3e, 0xc3, 0x20, 0x8e, 0x3e,
  0xed, 0xe2, 0xe8, 0xbc, 0x90, 0xd8, 0xff, 0x3d, 0x5c, 0x81, 0xf5, 0x3d,
  0x97, 0xd6, 0x23, 0xbb, 0x2b, 0x02, 0xe4, 0xbd, 0xe2, 0xdc, 0x28, 0x3d,
  0xc9, 0x99, 0xd1, 0x3e, 0x6d, 0xb0, 0x47, 0x3e, 0x13, 0x8c, 0x4b, 0xbd,
  0xcb, 0xe3, 0x13, 0xbd, 0xcb, 0x4a, 0x84, 0xbe, 0xe7, 0xb4, 0xca, 0xbe,
  0xaf, 0x4d, 0x8c, 0xbe, 0xc3, 0x89, 0xb6, 0x3d, 0x17, 0x2f, 0x04, 0xbe,
  0x11, 0xfd, 0x0c, 0x3e, 0xcf, 0x37, 0xe1, 0xbd, 0xcd, 0x17, 0xff, 0xbd,
  0x0c, 0x0d, 0x6f, 0x3d, 0x3f, 0x10, 0xb1, 0xbb, 0x03, 0x7a, 0xbc, 0xbc,
  0x7f, 0x79, 0xe5, 0xbd, 0xa1, 0xf3, 0xca, 0xbd, 0x0e, 0x23, 0x89, 0xbd,
  0x35, 0x16, 0xce, 0xbc, 0xe0, 0x36, 0x44, 0xbd, 0x0b, 0xf5, 0x04, 0x3e,
  0x47, 0xa5, 0x1e, 0x3e, 0xdd, 0x2a, 0x4d, 0xbd, 0xdc, 0x3e, 0xb9, 0x3d,
  0x1d, 0x94, 0x3d, 0x3e, 0x31, 0x39, 0x0c, 0x3d, 0xe3, 0x3a, 0xca, 0xbd,
  0x1a, 0xa4, 0x2e, 0xbe, 0xc2, 0x9b, 0x10, 0xbd, 0x17, 0x98, 0x4a, 0xbe,
  0x28, 0x68, 0x42, 0xbe, 0x17, 0xc5, 0xd7, 0x3c, 0x1d, 0x1d, 0x2d, 0xbe,
  0x07, 0xa1, 0xfc, 0xbd, 0xad, 0x4a, 0x82, 0xbe, 0xfe, 0x75, 0x55, 0x3e,
  0x5f, 0x20, 0x62, 0x3d, 0xfd, 0x86, 0x87, 0xbc, 0x18, 0x00, 0x8f, 0x3b,
  0x54, 0x5e, 0x53, 0x3c, 0xdd, 0x60, 0xda, 0xbc, 0x53, 0xbb, 0xdc, 0xbb,
  0x66, 0xb2, 0x99, 0xbd, 0xd3, 0x98, 0x34, 0x3c, 0x3c, 0xd8, 0x3e, 0x3e,
  0x19, 0x46, 0x3d, 0x3d, 0x33, 0x85, 0x32, 0xbd, 0x66, 0x0d, 0xea, 0xbc,
  0xac, 0x4e, 0x58, 0xbe, 0x59, 0x63, 0x23, 0xbe, 0x96, 0x44, 0x86, 0xbe,
  0x9a, 0x1e, 0x1f, 0x3e, 0x7e, 0x20, 0xd7, 0xbd, 0x45, 0xc3, 0x0f, 0x3e,
  0x3d, 0xa5, 0xcc, 0x3d, 0x97, 0x8b, 0x09, 0x3e, 0xcf, 0xf5, 0xef, 0xbc,
  0x74, 0x4f, 0xf0, 0x3d, 0x25, 0x49, 0xad, 0x3b, 0x1e, 0x97, 0xcf, 0xbd,
  0x4e, 0x65, 0x2c, 0xbd, 0x57, 0xdd, 0xfb, 0x3c, 0xef, 0x35, 0xc5, 0x3d,
  0x81, 0xac, 0xf9, 0xbd, 0x38, 0x4f, 0x11, 0x3d, 0x39, 0x84, 0xbb, 0xbd,
  0xcc, 0x7e, 0xa1, 0xbe, 0xa9, 0xf3, 0x81, 0xbd, 0x17, 0x51, 0x60, 0xbd,
  0xcb, 0x7f, 0xd8, 0x3d, 0xf8, 0x76, 0x5a, 0xbe, 0xfb, 0x82, 0x21, 0xbd,
  0xb3, 0xe0, 0xed, 0xbd, 0x29, 0x58, 0xcc, 0xbd, 0xfe, 0x7d, 0xb6, 0x3c,
  0x89, 0xd4, 0x32, 0x3d, 0x85, 0x2b, 0x33, 0xbe, 0xed, 0x9f, 0x87, 0x3d,
  0x21, 0x5f, 0xc1, 0xbc, 0xcc, 0x3b, 0x4c, 0x3d, 0xeb, 0x8a, 0x4f, 0xbe,
  0xe2, 0xea, 0xd5, 0xbd, 0x03, 0x60, 0xc6, 0xbc, 0x94, 0x2d, 0xba, 0xbe,
  0xf9, 0x79, 0x3d, 0xbe, 0x96, 0x95, 0x62, 0xbe, 0x0c, 0x37, 0x48, 0xbe,
  0x98, 0x8b, 0x11, 0x3e, 0xda, 0xa4, 0x59, 0xbe, 0x90, 0x4b, 0xd4, 0xbd,
  0xc6, 0x96, 0x09, 0xbe, 0x8d, 0x83, 0x10, 0xbc, 0x7a, 0xca, 0xc3, 0x3d,
  0xcb, 0xf4, 0x6c, 0xbe, 0x47, 0x40, 0x54, 0x3e, 0xff, 0xfe, 0x31, 0x3d,
  0xf0, 0x4e, 0x14, 0xbe, 0x83, 0xfc, 0x84, 0xbe, 0x76, 0x82, 0x40, 0xbe,
  0xd2, 0xee, 0x54, 0xbe, 0x81, 0xca, 0x0f, 0x3e, 0x12, 0xa6, 0xf1, 0x3d,
  0x42, 0x31, 0x36, 0xbe, 0xf2, 0xd1, 0xdb, 0xbd, 0x83, 0x30, 0x17, 0xbe,
  0x30, 0xf5, 0x5c, 0xbe, 0xb8, 0x90, 0x83, 0xbd, 0x6f, 0x3c, 0xc2, 0xbd,
  0x18, 0x74, 0x47, 0xbe, 0x4e, 0x58, 0x85, 0x3d, 0x92, 0x0e, 0xb8, 0xbd,
  0x27, 0x41, 0x17, 0xbe, 0x25, 0x30, 0x15, 0x3e, 0x2a, 0x68, 0x0e, 0x3c,
  0x85, 0x80, 0xe2, 0xbd, 0x80, 0x04, 0x31, 0xbe, 0x73, 0x87, 0x5a, 0xbe,
  0x45, 0x70, 0x4b, 0xbe, 0x0d, 0x0f, 0x3e, 0xbe, 0xf9, 0x63, 0x59, 0xba,
  0x40, 0xd5, 0xf7, 0x3d, 0x9e, 0xf6, 0x93, 0x3e, 0xa4, 0x3b, 0xb2, 0xbe,
  0xc3, 0x67, 0x5e, 0x3e, 0x9e, 0xc1, 0xaa, 0x3e, 0x80, 0xf1, 0x02, 0xbe,
  0xbc, 0x4f, 0x84, 0x3d, 0x5c, 0xb4, 0xa5, 0x3e, 0x42, 0xa3, 0xe1, 0xbd,
  0x87, 0xed, 0x3d, 0x3e, 0xb7, 0xb1, 0xc7, 0x3b, 0x2e, 0xe7, 0xcc, 0x3c,
  0x06, 0xa8, 0xc5, 0xbd, 0x3c, 0x87, 0x80, 0xbd, 0xa9, 0xb7, 0xee, 0xbd,
  0x14, 0xa0, 0xb9, 0x3c, 0xac, 0xf1, 0x50, 0xbe, 0xc0, 0x3c, 0x14, 0xbe,
  0x86, 0xab, 0x40, 0xbd, 0xb8, 0xaf, 0x14, 0xbe, 0x73, 0x9c, 0xc2, 0xbc,
  0xed, 0x41, 0x29, 0xbe, 0x9e, 0x3a, 0x19, 0xbd, 0xb6, 0xde, 0xa3, 0xbe,
  0x12, 0xf4, 0x2c, 0xbe, 0x7f, 0xc8, 0x93, 0xbd, 0xc5, 0xf7, 0x94, 0xbd,
  0x93, 0x00, 0x36, 0xbd, 0xcc, 0x26, 0x15, 0x3e, 0x62, 0xfb, 0x44, 0x3d,
  0x57, 0x01, 0x13, 0xbe, 0xfe, 0x5b, 0xc5, 0x3d, 0x9f, 0xf0, 0xfd, 0xbc,
  0x42, 0x48, 0x76, 0x3d, 0x5a, 0xeb, 0x26, 0xbc, 0x23, 0xc8, 0xc4, 0xbd,
  0x17, 0xa5, 0x10, 0xbe, 0x02, 0x9c, 0x72, 0xbd, 0x4b, 0x39, 0x87, 0x3c,
  0x29, 0xaa, 0x33, 0xbe, 0x6a, 0x45, 0x32, 0x3e, 0x7a, 0x79, 0x97, 0xbc,
  0x83, 0xc4, 0xaa, 0x3d, 0x21, 0x70, 0x64, 0xbc, 0x87, 0x40, 0x35, 0x3e,
  0x27, 0x2a, 0x42, 0x3d, 0xc4, 0x0a, 0x25, 0xbe, 0x4e, 0xc5, 0x93, 0x3d,
  0x96, 0x61, 0x35, 0x3c, 0x1c, 0xa4, 0x2e, 0xbd, 0xf1, 0x80, 0x00, 0xbc,
  0xb4, 0xae, 0x19, 0xbe, 0xe6, 0xb2, 0xe6, 0x3d, 0xaa, 0x21, 0x42, 0xbc,
  0xc2, 0xa9, 0x44, 0xbe, 0x25, 0x43, 0x08, 0xbe, 0xd2, 0xb4, 0xc7, 0xbd,
  0xaa, 0x21, 0xd9, 0xbd, 0xd6, 0x20, 0x9f, 0xbc, 0x01, 0x57, 0xe6, 0xbc,
  0x1f, 0x8a, 0xda, 0x3c, 0x06, 0xb9, 0x45, 0x3c, 0x0f, 0x2b, 0x4f, 0xbe,
  0x51, 0xf7, 0x34, 0xbb, 0x26, 0x23, 0x1a, 0x3d, 0xa7, 0x68, 0x8e, 0x3d,
  0x21, 0x3a, 0x54, 0x3c, 0x25, 0x16, 0xda, 0xbd, 0x36, 0xad, 0x42, 0xbd,
  0x5d, 0xbf, 0x23, 0x3d, 0x2f, 0xd8, 0x0d, 0xbd, 0x68, 0x87, 0x59, 0xbe,
  0x1a, 0x51, 0xc4, 0x3c, 0x15, 0x46, 0xa5, 0xbd, 0xf8, 0x3c, 0xa0, 0xbc,
  0x56, 0x86, 0xe1, 0xbc, 0x8b, 0x34, 0x7c, 0x3e, 0x44, 0x35, 0x6b, 0x3b,
  0xd5, 0xb3, 0xef, 0x3d, 0x45, 0x5d, 0x06, 0xbe, 0x40, 0xd7, 0xc1, 0x3e,
  0x06, 0x19, 0x52, 0x3e, 0x53, 0x1f, 0x26, 0xbe, 0x26, 0xb2, 0xbd, 0x3d,
  0x35, 0x29, 0xaf, 0x3e, 0x57, 0x6a, 0x1b, 0xbe, 0x40, 0x14, 0xd2, 0xbe,
  0xdd, 0x25, 0xcd, 0xbe, 0xb3, 0xf2, 0xd2, 0x3e, 0xf0, 0x7d, 0x9e, 0xbe,
  0x37, 0xfc, 0x7c, 0x3d, 0x35, 0xfe, 0x41, 0xbd, 0xcf, 0x76, 0xba, 0x3c,
  0x86, 0xd7, 0x08, 0x3e, 0x34, 0x58, 0x74, 0x3b, 0x85, 0x10, 0x86, 0x3e,
  0xc9, 0xc4, 0x39, 0x3d, 0x24, 0x4d, 0x8b, 0x3e, 0x40, 0x4f, 0xa7, 0xbd,
  0x0e, 0x08, 0x3c, 0x3d, 0x2f, 0x00, 0xaa, 0x3e, 0xd7, 0x41, 0x03, 0xbe,
  0xf1, 0xc7, 0x6c, 0xbe, 0x30, 0x75, 0x2a, 0x3d, 0x7b, 0xa3, 0xc1, 0x3e,
  0xf9, 0x1c, 0x61, 0x3c, 0x55, 0x57, 0x02, 0xbe, 0x8d, 0x67, 0xb8, 0x3c,
  0xa3, 0x7b, 0xd4, 0xbe, 0xd0, 0xb4, 0xa8, 0xbe, 0x34, 0x14, 0xd1, 0x3c,
  0x78, 0xe9, 0x1e, 0xbf, 0x0f, 0x35, 0xd7, 0xbe, 0xb8, 0x26, 0xfb, 0xbe,
  0x14, 0xb8, 0xe2, 0x3d, 0x75, 0xad, 0x00, 0x3f, 0x93, 0x4b, 0xd7, 0xbe,
  0x1b, 0xbb, 0xaf, 0x3f, 0xb5, 0x4a, 0x69, 0x3e, 0xb9, 0x0c, 0xd1, 0xbd,
  0xbd, 0x85, 0xa5, 0xbe, 0x23, 0x93, 0xee, 0x3c, 0xcc, 0x59, 0x09, 0x3e,
  0x37, 0x8a, 0xdb, 0x3d, 0x02, 0x18, 0x73, 0xbe, 0x50, 0x5b, 0x0d, 0x3e,
  0xc7, 0x10, 0x4a, 0xbe, 0x55, 0x15, 0x8f, 0x3e, 0x82, 0x8a, 0x78, 0xbe,
  0x64, 0x3b, 0x5a, 0x3d, 0xa9, 0xfc, 0x0a, 0xbe, 0x5c, 0x6f, 0xae, 0x3f,
  0x4b, 0xbc, 0xd2, 0xbd, 0xf2, 0xc1, 0x35, 0x40, 0x14, 0x3c, 0xb8, 0xbc,
  0x0f, 0xaa, 0xab, 0x3e, 0x75, 0xd2, 0x9a, 0x3d, 0xba, 0x62, 0xa7, 0x3d,
  0x68, 0xa0, 0x02, 0x3f, 0x33, 0xc7, 0xe2, 0xbd, 0x1c, 0x02, 0xb3, 0x3e,
  0xb2, 0x89, 0x1d, 0x3e, 0xa4, 0x15, 0x1c, 0xbe, 0xf4, 0x15, 0x83, 0xbe,
  0x92, 0xaa, 0x63, 0xbd, 0x07, 0xfd, 0x81, 0x3c, 0x12, 0xda, 0x89, 0xbd,
  0x04, 0x63, 0xad, 0x3f, 0xad, 0xe7, 0x91, 0xb9, 0x9b, 0x82, 0x30, 0x40,
  0x1c, 0xd1, 0xcb, 0xbd, 0x97, 0xf4, 0x72, 0x3e, 0x33, 0x88, 0x93, 0x3d,
  0x4a, 0x9b, 0xce, 0xbc, 0x97, 0xd1, 0x71, 0x3d, 0x8f, 0x1d, 0x80, 0xbd,
  0x66, 0x9f, 0xb6, 0x3d, 0x7c, 0x3d, 0x47, 0x3e, 0xdd, 0x04, 0x84, 0xbe,
  0x15, 0x90, 0x17, 0x3e, 0xfa, 0x6c, 0x19, 0x3e, 0x78, 0x98, 0xcc, 0x3c,
  0xdd, 0xa5, 0xdd, 0xbd, 0xe0, 0xd0, 0xa9, 0x3f, 0x05, 0x1e, 0x19, 0xbd,
  0xab, 0x8d, 0x19, 0x40, 0x36, 0x7d, 0x02, 0xbe, 0xfd, 0x31, 0x2e, 0xbe,
  0x59, 0x25, 0xdc, 0x3c, 0x40, 0xb7, 0x42, 0x3c, 0x1e, 0x8b, 0x14, 0xbe,
  0x2a, 0x60, 0xb7, 0xbd, 0x52, 0x6d, 0x6a, 0xbd, 0xa5, 0x67, 0x8c, 0x3c,
  0x6a, 0x88, 0x99, 0xbe, 0x97, 0x6e, 0xa8, 0x3d, 0x99, 0xd6, 0x10, 0xbe,
  0x48, 0xb0, 0xa4, 0x3e, 0x77, 0x73, 0x22, 0xbe, 0x4e, 0xb7, 0xc0, 0x3f,
  0x9c, 0x69, 0xa2, 0x3e, 0xa7, 0x0b, 0xd5, 0x3f, 0xe1, 0x51, 0x20, 0xbe,
  0x76, 0xb1, 0x9a, 0xbd, 0x2a, 0x76, 0x6e, 0xbc, 0x70, 0xf8, 0x6e, 0x3e,
  0x75, 0xd9, 0x72, 0xbe, 0xf7, 0x6d, 0xff, 0xbd, 0x09, 0x75, 0xad, 0x3e,
  0x4f, 0x7e, 0xe9, 0x3c, 0x93, 0x06, 0x4a, 0xbc, 0x35, 0x30, 0x8a, 0xbe,
  0x48, 0x18, 0xaa, 0xbe, 0xd0, 0x82, 0xc1, 0xbe, 0x08, 0x69, 0x31, 0x3e,
  0x09, 0xd6, 0xcb, 0x3f, 0xa3, 0x5c, 0x70, 0xbe, 0xbb, 0xe2, 0xec, 0x3f,
  0x09, 0xf4, 0x4c, 0x3e, 0xc3, 0xd3, 0xd4, 0x3d, 0x7e, 0x44, 0x8c, 0xbe,
  0x9c, 0x50, 0xa7, 0x3e, 0xcf, 0x8b, 0x3b, 0xbe, 0x81, 0xc4, 0xed, 0xbd,
  0xb9, 0x0a, 0x5e, 0x3e, 0xdd, 0x8b, 0x38, 0xbe, 0xec, 0x7c, 0x34, 0x3d,
  0x4e, 0xf7, 0xbd, 0xbd, 0x7b, 0x12, 0x9c, 0xbe, 0x47, 0x34, 0x17, 0xbe,
  0x94, 0x93, 0x28, 0x3d, 0x00, 0xba, 0x80, 0x3c, 0x4d, 0x52, 0x43, 0xbe,
  0x04, 0x64, 0xc4, 0x3f, 0xa1, 0x1b, 0xb3, 0x3d, 0xa4, 0x1d, 0x6e, 0x3c,
  0xee, 0x40, 0xf2, 0xbd, 0x1b, 0xe9, 0x38, 0x3e, 0x35, 0x4c, 0xeb, 0x3d,
  0x2d, 0x09, 0x6a, 0x3d, 0x2a, 0xc2, 0x19, 0x3e, 0x62, 0xdc, 0x6d, 0x3e,
  0xfc, 0xba, 0x11, 0xbd, 0x3a, 0x9c, 0xa1, 0x3d, 0x7e, 0x23, 0x41, 0x3c,
  0xa7, 0x3f, 0xa9, 0x3e, 0x4c, 0xcb, 0xff, 0xbd, 0x71, 0xbf, 0xf8, 0x3c,
  0x5c, 0xaa, 0x9b, 0x3e, 0x39, 0x36, 0x2f, 0x3e, 0xa5, 0x00, 0x95, 0xbd,
  0x6f, 0x70, 0x96, 0x3e, 0x78, 0xa7, 0x87, 0xbe, 0x3d, 0xc0, 0x10, 0x3e,
  0x9c, 0x34, 0x19, 0x3c, 0x83, 0xe5, 0x2b, 0xbc, 0x4c, 0x2d, 0xb1, 0xbd,
  0x0d, 0x38, 0x4a, 0x3e, 0x86, 0x77, 0x65, 0xbc, 0x02, 0x3e, 0x84, 0xbd,
  0xd4, 0x6f, 0x57, 0x3e, 0xe6, 0x60, 0x51, 0x3e, 0x3f, 0x65, 0xcd, 0xbd,
  0xee, 0x74, 0x3e, 0x3e, 0x3f, 0xab, 0xc1, 0x3d, 0xaf, 0x98, 0x82, 0xbc,
  0x87, 0x0c, 0xd4, 0x3d, 0xf7, 0x86, 0x44, 0xbd, 0x82, 0x34, 0xf5, 0x3d,
  0xba, 0x8b, 0xd5, 0x3b, 0xa6, 0x18, 0x2b, 0xbe, 0x8c, 0x5d, 0x00, 0x3d,
  0x70, 0x36, 0xdd, 0xbd, 0x3b, 0xbb, 0x57, 0xbe, 0xf3, 0xf8, 0x0c, 0xbe,
  0x13, 0x3b, 0x73, 0x3d, 0x3e, 0x95, 0x04, 0x3d, 0xdc, 0xb4, 0x99, 0xbd,
  0x55, 0x44, 0xe0, 0x3c, 0x44, 0xd5, 0x52, 0xbd, 0x01, 0xe2, 0x39, 0xbe,
  0xcb, 0x2b, 0xd4, 0xbe, 0x2a, 0xd4, 0x2e, 0xbe, 0xec, 0x69, 0x1f, 0xbe,
  0xe5, 0x8f, 0x71, 0x3e, 0xb1, 0x81, 0x8f, 0xbc, 0xe5, 0x84, 0x07, 0xbd,
  0xa1, 0x7f, 0x82, 0xbe, 0xf5, 0x58, 0x52, 0x3e, 0x86, 0xae, 0xe6, 0x3d,
  0x98, 0xcf, 0x6f, 0xbd, 0x9a, 0x44, 0x1d, 0x3e, 0xdc, 0x3a, 0x39, 0x3c,
  0x6c, 0x41, 0x30, 0xbe, 0x53, 0x43, 0xc3, 0x3c, 0x0e, 0xa2, 0x70, 0x3d,
  0xae, 0xbe, 0x9d, 0xbd, 0xf8, 0xd8, 0x1e, 0xbd, 0xe4, 0xd7, 0x4e, 0xbd,
  0x43, 0x18, 0x21, 0xbd, 0x89, 0xe7, 0x0f, 0x3e, 0xfd, 0x0c, 0x74, 0x3d,
  0x48, 0x4f, 0x40, 0xbc, 0x00, 0xd4, 0x10, 0xbe, 0x59, 0x84, 0xd7, 0x3d,
  0x0a, 0x59, 0x12, 0x3d, 0x5f, 0x69, 0x9b, 0x3c, 0xf5, 0x64, 0x86, 0x3d,
  0xbc, 0x84, 0x55, 0x3d, 0xd5, 0x5d, 0x1c, 0x3d, 0xba, 0xa7, 0x06, 0xbd,
  0x62, 0x9e, 0xdd, 0x3d, 0x31, 0xbf, 0xe6, 0x3d, 0x75, 0x7a, 0xb7, 0xbc,
  0xf1, 0x09, 0xf5, 0x3d, 0x31, 0xcc, 0x64, 0xbd, 0x72, 0x15, 0x99, 0x3d,
  0x66, 0xe1, 0xb5, 0xbd, 0xd9, 0x8a, 0xb5, 0xbd, 0x5c, 0x80, 0x01, 0xbe,
  0x34, 0x58, 0x9e, 0xbd, 0xc5, 0xea, 0xb4, 0x3d, 0xa9, 0x1a, 0xbc, 0xbd,
  0xe8, 0x9a, 0x4d, 0x3e, 0x4b, 0xb0, 0xca, 0xbd, 0x3c, 0x8a, 0x00, 0x3e,
  0x78, 0x39, 0x57, 0xbd, 0xb7, 0x1d, 0x56, 0xbe, 0xc8, 0x80, 0xc4, 0xbd,
  0x00, 0xc5, 0x7e, 0xbe, 0x79, 0x60, 0x17, 0x3e, 0x9a, 0xfa, 0x81, 0x3d,
  0x56, 0xd5, 0xad, 0xbc, 0x41, 0xdf, 0x4b, 0xbd, 0x89, 0x8f, 0xa2, 0x3c,
  0x4b, 0xd6, 0x62, 0xbd, 0x69, 0x5b, 0x09, 0x3e, 0x0d, 0x86, 0x1a, 0x3d,
  0x69, 0x9f, 0x22, 0x3d, 0x53, 0x07, 0xe1, 0xbc, 0x4f, 0xa9, 0x3f, 0x3d,
  0x17, 0x8e, 0xd0, 0xbc, 0x93, 0x2f, 0x8f, 0xba, 0x1b, 0x4b, 0x2e, 0x3d,
  0x56, 0x8a, 0x05, 0x3e, 0x1a, 0x49, 0x0b, 0xbe, 0xf3, 0x49, 0x4b, 0xbd,
  0xbb, 0x26, 0x76, 0xbd, 0x2b, 0x4d, 0x05, 0x3e, 0xe7, 0x5c, 0xea, 0xbd,
  0xa8, 0xb1, 0xbf, 0x3c, 0x46, 0x4d, 0x1b, 0xbe, 0x72, 0xd3, 0x48, 0x3c,
  0xdb, 0x8d, 0x12, 0xbe, 0x7c, 0x4f, 0x7b, 0xbd, 0x82, 0x57, 0x5b, 0xbe,
  0x6f, 0x76, 0x4f, 0xbe, 0xf9, 0xd2, 0x89, 0xbe, 0x7e, 0x5d, 0x81, 0xbe,
  0x29, 0x37, 0x7f, 0x3f, 0xdb, 0x40, 0xa0, 0xbe, 0x33, 0xe3, 0x7c, 0x3f,
  0x68, 0x1f, 0x89, 0x3e, 0x54, 0xb2, 0x47, 0xbe, 0x9f, 0x7e, 0x10, 0xbe,
  0x17, 0x35, 0x7b, 0xbd, 0x29, 0x54, 0x31, 0xbe, 0xa8, 0x84, 0x46, 0xbe,
  0x3f, 0x22, 0x7a, 0xbe, 0xed, 0x07, 0xd6, 0x3d, 0x77, 0x48, 0xc4, 0xbd,
  0x58, 0x09, 0xf7, 0x3d, 0x41, 0xea, 0xba, 0x3d, 0x5b, 0x96, 0x20, 0xbe,
  0x66, 0x65, 0xfe, 0xbc, 0x2f, 0xa5, 0xb2, 0x3f, 0xc9, 0x87, 0x1c, 0x3e,
  0x0a, 0x8f, 0x82, 0x3f, 0x0d, 0x08, 0x37, 0x3d, 0x5c, 0xdf, 0x85, 0xbb,
  0x1e, 0x3b, 0x21, 0xbe, 0x6b, 0x2e, 0x87, 0x3d, 0x3e, 0x59, 0x8d, 0xbd,
  0x19, 0x6d, 0x8f, 0xbc, 0xba, 0xe3, 0xa1, 0x3d, 0x30, 0xc4, 0xff, 0x3d,
  0xd0, 0xdc, 0x65, 0xbd, 0xf5, 0x61, 0x03, 0x3d, 0x08, 0x4c, 0x0d, 0xbd,
  0x02, 0x79, 0xa7, 0x3d, 0xd8, 0xd1, 0xe0, 0x3c, 0xb9, 0xd2, 0x3a, 0x3f,
  0x78, 0x89, 0x49, 0xbd, 0x47, 0xc7, 0x3d, 0x40, 0x28, 0xb8, 0x47, 0x3e,
  0x78, 0xc5, 0x38, 0xbe, 0x74, 0xcd, 0x5e, 0x3d, 0xb5, 0x8c, 0xfd, 0x3c,
  0xd4, 0x88, 0x8a, 0xbe, 0x90, 0xa9, 0x2c, 0xbd, 0xe2, 0x44, 0x5f, 0x3e,
  0xc4, 0x70, 0x8f, 0xbe, 0x44, 0x72, 0xde, 0xbd, 0x47, 0x77, 0x5b, 0x3d,
  0x67, 0x17, 0xa4, 0xbd, 0x26, 0x31, 0xd8, 0xbb, 0x61, 0xc0, 0xa5, 0x3d,
  0xa0, 0xfc, 0x90, 0x3f, 0xc6, 0x59, 0x85, 0xbd, 0x44, 0x57, 0x21, 0x40,
  0x93, 0x06, 0x93, 0x3e, 0xfa, 0x2d, 0x89, 0xbd, 0xc2, 0xd6, 0xc5, 0x3c,
  0xd9, 0x05, 0x74, 0xbd, 0x14, 0x7f, 0x26, 0xbe, 0xec, 0x86, 0x0d, 0xbd,
  0x5c, 0xd5, 0x5f, 0xba, 0x08, 0x45, 0x0e, 0x3b, 0xb2, 0xaa, 0x88, 0xbd,
  0x9a, 0x87, 0x8e, 0xbd, 0x27, 0x0d, 0x3b, 0xbb, 0xf7, 0xb0, 0x3b, 0xbe,
  0x46, 0x40, 0x54, 0xbe, 0xea, 0xe3, 0xa1, 0x3f, 0x9a, 0x64, 0x44, 0xbe,
  0xf1, 0xea, 0x30, 0x40, 0x72, 0xb6, 0x0b, 0x3e, 0xf2, 0x9d, 0x01, 0xbd,
  0x35, 0xa5, 0xa4, 0xbe, 0xb5, 0x98, 0x02, 0x3e, 0xd5, 0xc8, 0x83, 0xbe,
  0x51, 0x37, 0xe2, 0xbd, 0x62, 0x38, 0x5e, 0x3e, 0xcb, 0xe4, 0x19, 0xbc,
  0x44, 0x98, 0xb5, 0xbd, 0xba, 0xb0, 0x10, 0xbe, 0xc4, 0x5a, 0xe6, 0xbc,
  0x95, 0x1b, 0x5a, 0xbb, 0xb5, 0x31, 0xed, 0x3d, 0xa1, 0x2c, 0x99, 0x3f,
  0xd9, 0x90, 0x50, 0xbe, 0xc0, 0x5d, 0x22, 0x40, 0x4e, 0x0c, 0x04, 0x3e,
  0x8d, 0x19, 0x5d, 0x3e, 0x28, 0xad, 0xb8, 0xbe, 0xbc, 0x72, 0x86, 0x3e,
  0x9a, 0x17, 0xde, 0xbe, 0xc5, 0xe5, 0x5a, 0xbd, 0x75, 0x23, 0x9a, 0x3c,
  0xca, 0x38, 0xa3, 0x3b, 0x76, 0x54, 0x1a, 0x3d, 0x1a, 0xb7, 0x50, 0xbd,
  0x90, 0xeb, 0x78, 0xbe, 0xa3, 0x90, 0x2a, 0xbe, 0x45, 0x38, 0xc9, 0x3d,
  0x6f, 0x5c, 0xe7, 0x3d, 0x44, 0x69, 0xb3, 0xbe, 0xf3, 0xdd, 0xc5, 0x3f,
  0x93, 0x82, 0x19, 0x3e, 0xf1, 0xd7, 0x37, 0xbe, 0x12, 0xd7, 0x96, 0xbd,
  0xf9, 0xe2, 0x0d, 0x3e, 0xd8, 0xbb, 0x1e, 0x3e, 0x76, 0xd3, 0x3d, 0x3d,
  0x6c, 0x6d, 0xe5, 0x3d, 0x46, 0xdf, 0x23, 0x3e, 0x4a, 0xfe, 0xff, 0xff,
  0x10, 0x00, 0x00, 0x00, 0x05, 0x00, 0x00, 0x00, 0x14, 0x00, 0x00, 0x00,
  0x2c, 0x00, 0x00, 0x00, 0x02, 0x00, 0x00, 0x00, 0x10, 0x00, 0x00, 0x00,
  0x70, 0x00, 0x00, 0x00, 0x17, 0x00, 0x00, 0x00, 0x73, 0x65, 0x71, 0x75,
  0x65, 0x6e, 0x74, 0x69, 0x61, 0x6c, 0x2f, 0x64, 0x65, 0x6e, 0x73, 0x65,
  0x2f, 0x4d, 0x61, 0x74, 0x4d, 0x75, 0x6c, 0x00, 0x38, 0xfe, 0xff, 0xff,
  0x2e, 0xff, 0xff, 0xff, 0x04, 0x00, 0x00, 0x00, 0x08, 0x00, 0x00, 0x00,
  0xff, 0xff, 0xff, 0xff, 0x70, 0x00, 0x00, 0x00, 0x00, 0x00, 0x0e, 0x00,
  0x18, 0x00, 0x08, 0x00, 0x07, 0x00, 0x0c, 0x00, 0x10, 0x00, 0x14, 0x00,
  0x0e, 0x00, 0x00, 0x00, 0x00, 0x00, 0x00, 0x02, 0x10, 0x00, 0x00, 0x00,
  0x04, 0x00, 0x00, 0x00, 0x10, 0x00, 0x00, 0x00, 0x2c, 0x00, 0x00, 0x00,
  0x01, 0x00, 0x00, 0x00, 0x02, 0x00, 0x00, 0x00, 0x18, 0x00, 0x00, 0x00,
  0x73, 0x65, 0x71, 0x75, 0x65, 0x6e, 0x74, 0x69, 0x61, 0x6c, 0x2f, 0x66,
  0x6c, 0x61, 0x74, 0x74, 0x65, 0x6e, 0x2f, 0x43, 0x6f, 0x6e, 0x73, 0x74,
  0x00, 0x00, 0x00, 0x00, 0xa0, 0xfe, 0xff, 0xff, 0x96, 0xff, 0xff, 0xff,
  0x04, 0x00, 0x00, 0x00, 0x0c, 0x00, 0x00, 0x00, 0x9f, 0x2d, 0xa3, 0xbf,
  0x08, 0x02, 0xa7, 0xbf, 0x19, 0x4c, 0xde, 0x3f, 0x0a, 0xff, 0xff, 0xff,
  0x10, 0x00, 0x00, 0x00, 0x03, 0x00, 0x00, 0x00, 0x10, 0x00, 0x00, 0x00,
  0x3c, 0x00, 0x00, 0x00, 0x01, 0x00, 0x00, 0x00, 0x03, 0x00, 0x00, 0x00,
  0x29, 0x00, 0x00, 0x00, 0x73, 0x65, 0x71, 0x75, 0x65, 0x6e, 0x74, 0x69,
  0x61, 0x6c, 0x2f, 0x64, 0x65, 0x6e, 0x73, 0x65, 0x5f, 0x31, 0x2f, 0x42,
  0x69, 0x61, 0x73, 0x41, 0x64, 0x64, 0x2f, 0x52, 0x65, 0x61, 0x64, 0x56,
  0x61, 0x72, 0x69, 0x61, 0x62, 0x6c, 0x65, 0x4f, 0x70, 0x00, 0x00, 0x00,
  0x60, 0xff, 0xff, 0xff, 0x00, 0x00, 0x06, 0x00, 0x08, 0x00, 0x04, 0x00,
  0x06, 0x00, 0x00, 0x00, 0x04, 0x00, 0x00, 0x00, 0x40, 0x00, 0x00, 0x00,
  0x77, 0x2e, 0x4f, 0x40, 0x6f, 0x29, 0x4c, 0xbf, 0x93, 0x1f, 0x80, 0x40,
  0x20, 0x50, 0x57, 0xbf, 0x3a, 0x31, 0x1d, 0xbf, 0xab, 0xfe, 0x35, 0x40,
  0x72, 0x45, 0xd1, 0x3f, 0xb1, 0x82, 0x24, 0x40, 0xf2, 0xd0, 0x65, 0xbe,
  0x37, 0x09, 0x5e, 0xbd, 0x1c, 0xef, 0x52, 0xbf, 0x16, 0x45, 0x9e, 0xbe,
  0x36, 0x8a, 0x19, 0xbf, 0x53, 0x7d, 0x01, 0xbf, 0xf1, 0x99, 0x16, 0xbf,
  0x39, 0x31, 0x4c, 0xbe, 0xae, 0xff, 0xff, 0xff, 0x10, 0x00, 0x00, 0x00,
  0x02, 0x00, 0x00, 0x00, 0x10, 0x00, 0x00, 0x00, 0x3c, 0x00, 0x00, 0x00,
  0x01, 0x00, 0x00, 0x00, 0x10, 0x00, 0x00, 0x00, 0x27, 0x00, 0x00, 0x00,
  0x73, 0x65, 0x71, 0x75, 0x65, 0x6e, 0x74, 0x69, 0x61, 0x6c, 0x2f, 0x64,
  0x65, 0x6e, 0x73, 0x65, 0x2f, 0x42, 0x69, 0x61, 0x73, 0x41, 0x64, 0x64,
  0x2f, 0x52, 0x65, 0x61, 0x64, 0x56, 0x61, 0x72, 0x69, 0x61, 0x62, 0x6c,
  0x65, 0x4f, 0x70, 0x00, 0x04, 0x00, 0x06, 0x00, 0x04, 0x00, 0x00, 0x00,
  0x00, 0x00, 0x0e, 0x00, 0x14, 0x00, 0x04, 0x00, 0x00, 0x00, 0x08, 0x00,
  0x0c, 0x00, 0x10, 0x00, 0x0e, 0x00, 0x00, 0x00, 0x10, 0x00, 0x00, 0x00,
  0x01, 0x00, 0x00, 0x00, 0x1c, 0x00, 0x00, 0x00, 0x2c, 0x00, 0x00, 0x00,
  0x04, 0x00, 0x00, 0x00, 0x01, 0x00, 0x00, 0x00, 0x40, 0x00, 0x00, 0x00,
  0x03, 0x00, 0x00, 0x00, 0x01, 0x00, 0x00, 0x00, 0x0c, 0x00, 0x00, 0x00,
  0x63, 0x6f, 0x6e, 0x76, 0x32, 0x64, 0x5f, 0x69, 0x6e, 0x70, 0x75, 0x74,
  0x00, 0x00, 0x00, 0x00, 0xfc, 0xff, 0xff, 0xff, 0x04, 0x00, 0x04, 0x00,
  0x04, 0x00, 0x00, 0x00
};


unsigned int model_tflite_len = 12316;// Fill the int in `src/model.cc` here