#include "magic_wand_model_data.h"


// We need to keep the data array aligned on some architectures.

#ifdef __has_attribute

#define HAVE_ATTRIBUTE(x) __has_attribute(x)

#else

#define HAVE_ATTRIBUTE(x) 0

#endif

#if HAVE_ATTRIBUTE(aligned) || (defined(__GNUC__) && !defined(__clang__))

#define DATA_ALIGN_ATTRIBUTE __attribute__((aligned(4)))

#else

#define DATA_ALIGN_ATTRIBUTE

#endif


const unsigned char g_magic_wand_model_data[] DATA_ALIGN_ATTRIBUTE = {

  0x08, 0x00, 0x00, 0x00, 0x54, 0x46, 0x4c, 0x33, 0x62, 0xff, 0xff, 0xff,
  0x03, 0x00, 0x00, 0x00, 0x10, 0x00, 0x00, 0x00, 0x24, 0x00, 0x00, 0x00,
  0x78, 0x00, 0x00, 0x00, 0x24, 0x00, 0x00, 0x00, 0x05, 0x00, 0x00, 0x00,
  0x78, 0x05, 0x00, 0x00, 0xb0, 0x04, 0x00, 0x00, 0xe0, 0x02, 0x00, 0x00,
  0x60, 0x02, 0x00, 0x00, 0x54, 0x01, 0x00, 0x00, 0x01, 0x00, 0x00, 0x00,
  0x78, 0x00, 0x00, 0x00, 0x13, 0x00, 0x00, 0x00, 0xd4, 0x2f, 0x00, 0x00,
  0xd0, 0x2f, 0x00, 0x00, 0xdc, 0x2e, 0x00, 0x00, 0x68, 0x2e, 0x00, 0x00,
  0xfc, 0x2d, 0x00, 0x00, 0xac, 0x11, 0x00, 0x00, 0x98, 0x10, 0x00, 0x00,
  0xbc, 0x0e, 0x00, 0x00, 0x60, 0x06, 0x00, 0x00, 0xfc, 0x05, 0x00, 0x00,
  0x78, 0x05, 0x00, 0x00, 0xa8, 0x2f, 0x00, 0x00, 0xa4, 0x2f, 0x00, 0x00,
  0xa0, 0x2f, 0x00, 0x00, 0x9c, 0x2f, 0x00, 0x00, 0x98, 0x2f, 0x00, 0x00,
  0x94, 0x2f, 0x00, 0x00, 0x90, 0x2f, 0x00, 0x00, 0x8c, 0x2f, 0x00, 0x00,
  0x0f, 0x00, 0x00, 0x00, 0x4d, 0x4c, 0x49, 0x52, 0x20, 0x43, 0x6f, 0x6e,
  0x76, 0x65, 0x72, 0x74, 0x65, 0x64, 0x2e, 0x00, 0x00, 0x00, 0x0e, 0x00,
  0x18, 0x00, 0x04, 0x00, 0x08, 0x00, 0x0c, 0x00, 0x10, 0x00, 0x14, 0x00,
  0x0e, 0x00, 0x00, 0x00, 0x14, 0x00, 0x00, 0x00, 0x5c, 0x00, 0x00, 0x00,
  0x60, 0x00, 0x00, 0x00, 0x64, 0x00, 0x00, 0x00, 0x84, 0x00, 0x00, 0x00,
  0x12, 0x00, 0x00, 0x00, 0x04, 0x2f, 0x00, 0x00, 0xa0, 0x2e, 0x00, 0x00,
  0xf8, 0x2d, 0x00, 0x00, 0x98, 0x2d, 0x00, 0x00, 0x30, 0x2d, 0x00, 0x00,
  0xdc, 0x10, 0x00, 0x00, 0xc0, 0x0f, 0x00, 0x00, 0xe4, 0x0d, 0x00, 0x00,
  0xa0, 0x05, 0x00, 0x00, 0x3c, 0x05, 0x00, 0x00, 0xb0, 0x04, 0x00, 0x00,
  0xe8, 0x03, 0x00, 0x00, 0x38, 0x03, 0x00, 0x00, 0xa4, 0x02, 0x00, 0x00,
  0x10, 0x02, 0x00, 0x00, 0x90, 0x01, 0x00, 0x00, 0xfc, 0x00, 0x00, 0x00,
  0x80, 0x00, 0x00, 0x00, 0x01, 0x00, 0x00, 0x00, 0x00, 0x00, 0x00, 0x00,
  0x01, 0x00, 0x00, 0x00, 0x11, 0x00, 0x00, 0x00, 0x08, 0x00, 0x00, 0x00,
  0x1c, 0x04, 0x00, 0x00, 0x58, 0x03, 0x00, 0x00, 0xc8, 0x02, 0x00, 0x00,
  0x24, 0x02, 0x00, 0x00, 0xac, 0x01, 0x00, 0x00, 0x10, 0x01, 0x00, 0x00,
  0x94, 0x00, 0x00, 0x00, 0x10, 0x00, 0x00, 0x00, 0x04, 0x00, 0x00, 0x00,
  0x6d, 0x61, 0x69, 0x6e, 0x00, 0x00, 0x00, 0x00, 0x8e, 0xff, 0xff, 0xff,
  0x00, 0x00, 0x00, 0x09, 0x04, 0x00, 0x00, 0x00, 0x1c, 0x00, 0x00, 0x00,
  0x10, 0x00, 0x00, 0x00, 0x04, 0x00, 0x00, 0x00, 0x4e, 0xd2, 0xff, 0xff,
  0x00, 0x00, 0x80, 0x3f, 0x01, 0x00, 0x00, 0x00, 0x11, 0x00, 0x00, 0x00,
  0x01, 0x00, 0x00, 0x00, 0x10, 0x00, 0x00, 0x00, 0xf6, 0xfb, 0xff, 0xff,
  0x00, 0x00, 0x00, 0x19, 0x01, 0x00, 0x00, 0x00, 0xce, 0xd1, 0xff, 0xff,
  0x10, 0x00, 0x00, 0x00, 0x12, 0x00, 0x00, 0x00, 0x14, 0x00, 0x00, 0x00,
  0x20, 0x00, 0x00, 0x00, 0x02, 0x00, 0x00, 0x00, 0x01, 0x00, 0x00, 0x00,
  0x03, 0x00, 0x00, 0x00, 0x08, 0x00, 0x00, 0x00, 0x49, 0x64, 0x65, 0x6e,
  0x74, 0x69, 0x74, 0x79, 0x00, 0x00, 0x00, 0x00, 0x08, 0xd2, 0xff, 0xff,
  0x00, 0x00, 0x0e, 0x00, 0x18, 0x00, 0x08, 0x00, 0x0c, 0x00, 0x10, 0x00,
  0x07, 0x00, 0x14, 0x00, 0x0e, 0x00, 0x00, 0x00, 0x00, 0x00, 0x00, 0x08,
  0x03, 0x00, 0x00, 0x00, 0x18, 0x00, 0x00, 0x00, 0x0c, 0x00, 0x00, 0x00,
  0x04, 0x00, 0x00, 0x00, 0xdc, 0xd1, 0xff, 0xff, 0x01, 0x00, 0x00, 0x00,
  0x10, 0x00, 0x00, 0x00, 0x03, 0x00, 0x00, 0x00, 0x0f, 0x00, 0x00, 0x00,
  0x05, 0x00, 0x00, 0x00, 0x02, 0x00, 0x00, 0x00, 0x46, 0xd2, 0xff, 0xff,
  0x10, 0x00, 0x00, 0x00, 0x11, 0x00, 0x00, 0x00, 0x14, 0x00, 0x00, 0x00,
  0x30, 0x00, 0x00, 0x00, 0x02, 0x00, 0x00, 0x00, 0x01, 0x00, 0x00, 0x00,
  0x03, 0x00, 0x00, 0x00, 0x1a, 0x00, 0x00, 0x00, 0x73, 0x65, 0x71, 0x75,
  0x65, 0x6e, 0x74, 0x69, 0x61, 0x6c, 0x2f, 0x64, 0x65, 0x6e, 0x73, 0x65,
  0x5f, 0x31, 0x2f, 0x42, 0x69, 0x61, 0x73, 0x41, 0x64, 0x64, 0x00, 0x00,
  0x38, 0xd2, 0xff, 0xff, 0xd6, 0xfd, 0xff, 0xff, 0x00, 0x00, 0x00, 0x08,
  0x03, 0x00, 0x00, 0x00, 0x24, 0x00, 0x00, 0x00, 0x18, 0x00, 0x00, 0x00,
  0x0c, 0x00, 0x00, 0x00, 0x00, 0x00, 0x06, 0x00, 0x08, 0x00, 0x07, 0x00,
  0x06, 0x00, 0x00, 0x00, 0x00, 0x00, 0x00, 0x01, 0x01, 0x00, 0x00, 0x00,
  0x0f, 0x00, 0x00, 0x00, 0x03, 0x00, 0x00, 0x00, 0x0e, 0x00, 0x00, 0x00,
  0x04, 0x00, 0x00, 0x00, 0x01, 0x00, 0x00, 0x00, 0xfe, 0xfc, 0xff, 0xff,
  0x00, 0x00, 0x00, 0x09, 0x01, 0x00, 0x00, 0x00, 0xd6, 0xd2, 0xff, 0xff,
  0x10, 0x00, 0x00, 0x00, 0x10, 0x00, 0x00, 0x00, 0x14, 0x00, 0x00, 0x00,
  0x2c, 0x00, 0x00, 0x00, 0x02, 0x00, 0x00, 0x00, 0x01, 0x00, 0x00, 0x00,
  0x10, 0x00, 0x00, 0x00, 0x15, 0x00, 0x00, 0x00, 0x73, 0x65, 0x71, 0x75,
  0x65, 0x6e, 0x74, 0x69, 0x61, 0x6c, 0x2f, 0x64, 0x65, 0x6e, 0x73, 0x65,
  0x2f, 0x52, 0x65, 0x6c, 0x75, 0x00, 0x00, 0x00, 0x1c, 0xd3, 0xff, 0xff,
  0x00, 0x00, 0x0a, 0x00, 0x10, 0x00, 0x04, 0x00, 0x08, 0x00, 0x0c, 0x00,
  0x0a, 0x00, 0x00, 0x00, 0x02, 0x00, 0x00, 0x00, 0x10, 0x00, 0x00, 0x00,
  0x04, 0x00, 0x00, 0x00, 0x01, 0x00, 0x00, 0x00, 0x0e, 0x00, 0x00, 0x00,
  0x02, 0x00, 0x00, 0x00, 0x0d, 0x00, 0x00, 0x00, 0x03, 0x00, 0x00, 0x00,
  0x7a, 0xfd, 0xff, 0xff, 0x00, 0x00, 0x00, 0x16, 0x01, 0x00, 0x00, 0x00,
  0x52, 0xd3, 0xff, 0xff, 0x10, 0x00, 0x00, 0x00, 0x0f, 0x00, 0x00, 0x00,
  0x14, 0x00, 0x00, 0x00, 0x30, 0x00, 0x00, 0x00, 0x02, 0x00, 0x00, 0x00,
  0x01, 0x00, 0x00, 0x00, 0x70, 0x00, 0x00, 0x00, 0x1a, 0x00, 0x00, 0x00,
  0x73, 0x65, 0x71, 0x75, 0x65, 0x6e, 0x74, 0x69, 0x61, 0x6c, 0x2f, 0x66,
  0x6c, 0x61, 0x74, 0x74, 0x65, 0x6e, 0x2f, 0x52, 0x65, 0x73, 0x68, 0x61,
  0x70, 0x65, 0x00, 0x00, 0x44, 0xd3, 0xff, 0xff, 0xe2, 0xfe, 0xff, 0xff,
  0x00, 0x00, 0x00, 0x05, 0x01, 0x00, 0x00, 0x00, 0x38, 0x00, 0x00, 0x00,
  0x2c, 0x00, 0x00, 0x00, 0x14, 0x00, 0x00, 0x00, 0x00, 0x00, 0x0e, 0x00,
  0x14, 0x00, 0x00, 0x00, 0x10, 0x00, 0x0c, 0x00, 0x08, 0x00, 0x04, 0x00,
  0x0e, 0x00, 0x00, 0x00, 0x03, 0x00, 0x00, 0x00, 0x01, 0x00, 0x00, 0x00,
  0x03, 0x00, 0x00, 0x00, 0x01, 0x00, 0x00, 0x00, 0x01, 0x00, 0x00, 0x00,
  0x0d, 0x00, 0x00, 0x00, 0x01, 0x00, 0x00, 0x00, 0x0c, 0x00, 0x00, 0x00,
  0xe2, 0xd3, 0xff, 0xff, 0x10, 0x00, 0x00, 0x00, 0x0e, 0x00, 0x00, 0x00,
  0x1c, 0x00, 0x00, 0x00, 0x40, 0x00, 0x00, 0x00, 0x04, 0x00, 0x00, 0x00,
  0x01, 0x00, 0x00, 0x00, 0x07, 0x00, 0x00, 0x00, 0x01, 0x00, 0x00, 0x00,
  0x10, 0x00, 0x00, 0x00, 0x22, 0x00, 0x00, 0x00, 0x73, 0x65, 0x71, 0x75,
  0x65, 0x6e, 0x74, 0x69, 0x61, 0x6c, 0x2f, 0x6d, 0x61, 0x78, 0x5f, 0x70,
  0x6f, 0x6f, 0x6c, 0x69, 0x6e, 0x67, 0x32, 0x64, 0x5f, 0x31, 0x2f, 0x4d,
  0x61, 0x78, 0x50, 0x6f, 0x6f, 0x6c, 0x00, 0x00, 0xe4, 0xd3, 0xff, 0xff,
  0xc2, 0xfe, 0xff, 0xff, 0x00, 0x00, 0x00, 0x01, 0x24, 0x00, 0x00, 0x00,
  0x18, 0x00, 0x00, 0x00, 0x04, 0x00, 0x00, 0x00, 0xb4, 0xfe, 0xff, 0xff,
  0x01, 0x00, 0x00, 0x00, 0x01, 0x00, 0x00, 0x00, 0x00, 0x00, 0x00, 0x01,
  0x01, 0x00, 0x00, 0x00, 0x0c, 0x00, 0x00, 0x00, 0x03, 0x00, 0x00, 0x00,
  0x0b, 0x00, 0x00, 0x00, 0x07, 0x00, 0x00, 0x00, 0x09, 0x00, 0x00, 0x00,
  0x72, 0xd4, 0xff, 0xff, 0x10, 0x00, 0x00, 0x00, 0x0d, 0x00, 0x00, 0x00,
  0x1c, 0x00, 0x00, 0x00, 0x2c, 0x00, 0x00, 0x00, 0x04, 0x00, 0x00, 0x00,
  0x01, 0x00, 0x00, 0x00, 0x15, 0x00, 0x00, 0x00, 0x01, 0x00, 0x00, 0x00,
  0x10, 0x00, 0x00, 0x00, 0x0c, 0x00, 0x00, 0x00, 0x74, 0x66, 0x6c, 0x2e,
  0x63, 0x6f, 0x6e, 0x76, 0x5f, 0x32, 0x64, 0x31, 0x00, 0x00, 0x00, 0x00,
  0xb8, 0xd4, 0xff, 0xff, 0x00, 0x00, 0x0e, 0x00, 0x1a, 0x00, 0x08, 0x00,
  0x0c, 0x00, 0x10, 0x00, 0x07, 0x00, 0x14, 0x00, 0x0e, 0x00, 0x00, 0x00,
  0x00, 0x00, 0x00, 0x05, 0x01, 0x00, 0x00, 0x00, 0x3c, 0x00, 0x00, 0x00,
  0x30, 0x00, 0x00, 0x00, 0x14, 0x00, 0x00, 0x00, 0x00, 0x00, 0x0e, 0x00,
  0x18, 0x00, 0x17, 0x00, 0x10, 0x00, 0x0c, 0x00, 0x08, 0x00, 0x04, 0x00,
  0x0e, 0x00, 0x00, 0x00, 0x03, 0x00, 0x00, 0x00, 0x03, 0x00, 0x00, 0x00,
  0x03, 0x00, 0x00, 0x00, 0x03, 0x00, 0x00, 0x00, 0x00, 0x00, 0x00, 0x01,
  0x01, 0x00, 0x00, 0x00, 0x0b, 0x00, 0x00, 0x00, 0x01, 0x00, 0x00, 0x00,
  0x0a, 0x00, 0x00, 0x00, 0x46, 0xff, 0xff, 0xff, 0x00, 0x00, 0x00, 0x11,
  0x01, 0x00, 0x00, 0x00, 0x1e, 0xd5, 0xff, 0xff, 0x10, 0x00, 0x00, 0x00,
  0x0c, 0x00, 0x00, 0x00, 0x1c, 0x00, 0x00, 0x00, 0x40, 0x00, 0x00, 0x00,
  0x04, 0x00, 0x00, 0x00, 0x01, 0x00, 0x00, 0x00, 0x15, 0x00, 0x00, 0x00,
  0x01, 0x00, 0x00, 0x00, 0x08, 0x00, 0x00, 0x00, 0x20, 0x00, 0x00, 0x00,
  0x73, 0x65, 0x71, 0x75, 0x65, 0x6e, 0x74, 0x69, 0x61, 0x6c, 0x2f, 0x6d,
  0x61, 0x78, 0x5f, 0x70, 0x6f, 0x6f, 0x6c, 0x69, 0x6e, 0x67, 0x32, 0x64,
  0x2f, 0x4d, 0x61, 0x78, 0x50, 0x6f, 0x6f, 0x6c, 0x00, 0x00, 0x00, 0x00,
  0x78, 0xd5, 0xff, 0xff, 0x00, 0x00, 0x0e, 0x00, 0x14, 0x00, 0x00, 0x00,
  0x08, 0x00, 0x0c, 0x00, 0x07, 0x00, 0x10, 0x00, 0x0e, 0x00, 0x00, 0x00,
  0x00, 0x00, 0x00, 0x01, 0x30, 0x00, 0x00, 0x00, 0x24, 0x00, 0x00, 0x00,
  0x10, 0x00, 0x00, 0x00, 0x0c, 0x00, 0x10, 0x00, 0x00, 0x00, 0x04, 0x00,
  0x08, 0x00, 0x0f, 0x00, 0x0c, 0x00, 0x00, 0x00, 0x01, 0x00, 0x00, 0x00,
  0x01, 0x00, 0x00, 0x00, 0x00, 0x00, 0x00, 0x01, 0x01, 0x00, 0x00, 0x00,
  0x0a, 0x00, 0x00, 0x00, 0x03, 0x00, 0x00, 0x00, 0x00, 0x00, 0x00, 0x00,
  0x06, 0x00, 0x00, 0x00, 0x08, 0x00, 0x00, 0x00, 0x00, 0x00, 0x0a, 0x00,
  0x0c, 0x00, 0x07, 0x00, 0x00, 0x00, 0x08, 0x00, 0x0a, 0x00, 0x00, 0x00,
  0x00, 0x00, 0x00, 0x03, 0x01, 0x00, 0x00, 0x00, 0xe2, 0xd5, 0xff, 0xff,
  0x10, 0x00, 0x00, 0x00, 0x0b, 0x00, 0x00, 0x00, 0x1c, 0x00, 0x00, 0x00,
  0x28, 0x00, 0x00, 0x00, 0x04, 0x00, 0x00, 0x00, 0x01, 0x00, 0x00, 0x00,
  0x40, 0x00, 0x00, 0x00, 0x03, 0x00, 0x00, 0x00, 0x08, 0x00, 0x00, 0x00,
  0x0b, 0x00, 0x00, 0x00, 0x74, 0x66, 0x6c, 0x2e, 0x63, 0x6f, 0x6e, 0x76,
  0x5f, 0x32, 0x64, 0x00, 0xcc, 0xd5, 0xff, 0xff, 0xc2, 0xd6, 0xff, 0xff,
  0x04, 0x00, 0x00, 0x00, 0x40, 0x00, 0x00, 0x00, 0x01, 0xd7, 0x43, 0xbf,
  0x15, 0xaa, 0x83, 0x3f, 0x91, 0x99, 0x54, 0xbf, 0x10, 0x4d, 0xa6, 0xbe,
  0xfc, 0xf3, 0x18, 0x40, 0x58, 0x10, 0xe6, 0x3b, 0x39, 0xc4, 0x10, 0xbe,
  0xc9, 0xf0, 0xea, 0x3d, 0x76, 0xd5, 0x81, 0x3e, 0x66, 0x4e, 0x65, 0x3d,
  0xcc, 0x91, 0x70, 0xbe, 0xc2, 0xa7, 0x2c, 0x3f, 0x0f, 0x7a, 0x93, 0x3e,
  0xea, 0xfd, 0x97, 0x3e, 0x44, 0x2f, 0x38, 0x40, 0x43, 0x7b, 0xef, 0xbe,
  0x6a, 0xd6, 0xff, 0xff, 0x10, 0x00, 0x00, 0x00, 0x0a, 0x00, 0x00, 0x00,
  0x10, 0x00, 0x00, 0x00, 0x20, 0x00, 0x00, 0x00, 0x01, 0x00, 0x00, 0x00,
  0x10, 0x00, 0x00, 0x00, 0x0d, 0x00, 0x00, 0x00, 0x73, 0x74, 0x64, 0x2e,
  0x63, 0x6f, 0x6e, 0x73, 0x74, 0x61, 0x6e, 0x74, 0x31, 0x00, 0x00, 0x00,
  0x4c, 0xd6, 0xff, 0xff, 0x42, 0xd7, 0xff, 0xff, 0x04, 0x00, 0x00, 0x00,
  0x20, 0x00, 0x00, 0x00, 0x43, 0x9b, 0x00, 0xbe, 0x3d, 0xee, 0xaf, 0xbf,
  0xd7, 0x52, 0xc6, 0xbe, 0xfb, 0xab, 0x1e, 0xbf, 0xb3, 0xf9, 0xf6, 0xbd,
  0x0b, 0x0b, 0x9d, 0xbc, 0x55, 0x67, 0x7f, 0xbf, 0x1c, 0x32, 0x54, 0xbe,
  0xca, 0xd6, 0xff, 0xff, 0x10, 0x00, 0x00, 0x00, 0x09, 0x00, 0x00, 0x00,
  0x10, 0x00, 0x00, 0x00, 0x20, 0x00, 0x00, 0x00, 0x01, 0x00, 0x00, 0x00,
  0x08, 0x00, 0x00, 0x00, 0x0c, 0x00, 0x00, 0x00, 0x73, 0x74, 0x64, 0x2e,
  0x63, 0x6f, 0x6e, 0x73, 0x74, 0x61, 0x6e, 0x74, 0x00, 0x00, 0x00, 0x00,
  0xac, 0xd6, 0xff, 0xff, 0xa2, 0xd7, 0xff, 0xff, 0x04, 0x00, 0x00, 0x00,
  0x00, 0x08, 0x00, 0x00, 0x83, 0x41, 0x4d, 0xbe, 0x73, 0x72, 0x6d, 0x3e,
  0x4d, 0x2d, 0x2c, 0xbe, 0x3e, 0x00, 0xad, 0xbe, 0x67, 0xae, 0xa2, 0xbd,
  0x4a, 0xfc, 0xbe, 0x3d, 0xbe, 0x48, 0x12, 0xbd, 0xe0, 0xce, 0xbf, 0xbe,
  0x7f, 0x50, 0x4c, 0xbe, 0x55, 0xca, 0x9e, 0xbd, 0x3d, 0x40, 0xca, 0x3d,
  0x86, 0x76, 0x11, 0xbf, 0xfc, 0x06, 0x7f, 0xbe, 0x11, 0x6f, 0x1b, 0x3d,
  0xc2, 0x4e, 0xc5, 0x3d, 0xd6, 0x6b, 0xc0, 0xbe, 0xa8, 0x99, 0x89, 0xbe,
  0xef, 0xf3, 0x3e, 0xbd, 0xc9, 0x9d, 0xa7, 0x3d, 0xd2, 0x78, 0xd2, 0xbe,
  0x5b, 0x35, 0xa0, 0xbe, 0x76, 0xb0, 0x11, 0x3c, 0xfc, 0xcc, 0x1e, 0x3e,
  0x1b, 0x75, 0x86, 0xbe, 0xf8, 0xbb, 0x8d, 0xbe, 0xe2, 0x24, 0xe0, 0x3c,
  0x02, 0x46, 0xda, 0xbd, 0x7f, 0x8e, 0xbb, 0x3e, 0x36, 0x5a, 0x2c, 0xbe,
  0x77, 0xbe, 0x10, 0x3d, 0x21, 0x87, 0x93, 0x3d, 0x48, 0x82, 0xac, 0x3e,
  0x27, 0x79, 0x16, 0xbe, 0x96, 0x76, 0xce, 0x3d, 0xdd, 0x1d, 0x03, 0xbc,
  0x46, 0x92, 0xd1, 0x3c, 0xb2, 0x63, 0x7a, 0xbe, 0x3f, 0xc6, 0xf1, 0xbd,
  0x1a, 0x13, 0xd4, 0xbd, 0x07, 0x7f, 0x1e, 0xbd, 0x90, 0xa7, 0x6c, 0xbe,
  0x0b, 0x36, 0x77, 0x3d, 0x37, 0x8c, 0x67, 0xbe, 0x4d, 0x60, 0x51, 0xbe,
  0x5e, 0x0a, 0xda, 0xbe, 0x93, 0x6b, 0xbc, 0x3e, 0x4d, 0xd7, 0xf0, 0xbc,
  0x51, 0x9c, 0x4b, 0xbe, 0xbd, 0x56, 0xd5, 0xbd, 0xe1, 0x20, 0x89, 0x3d,
  0x63, 0x9c, 0x5c, 0x3e, 0x1b, 0x32, 0x16, 0x3d, 0x55, 0xcd, 0x8e, 0xbd,
  0xd6, 0x26, 0x5e, 0xbe, 0xc3, 0x0f, 0x3f, 0x3d, 0xc2, 0xf0, 0xd6, 0xbd,
  0x43, 0xda, 0xf8, 0xbd, 0xa0, 0x0f, 0x46, 0xbe, 0xc9, 0x52, 0xc8, 0x3b,
  0xac, 0xfa, 0xa0, 0x3e, 0x92, 0x5b, 0x8c, 0xbd, 0x3b, 0x7b, 0xc3, 0xbd,
  0x46, 0x89, 0x82, 0xbd, 0xd6, 0xb6, 0xb3, 0xbd, 0x9e, 0x08, 0x9f, 0xbe,
  0x47, 0xe5, 0xb0, 0x3d, 0xa9, 0xd0, 0x15, 0xbe, 0x74, 0xd5, 0x9f, 0xbe,
  0x41, 0x96, 0x10, 0xbe, 0xbd, 0x92, 0x46, 0xbd, 0x95, 0x12, 0x2b, 0x3e,
  0x7a, 0x96, 0x84, 0xbe, 0x9e, 0x80, 0x8f, 0xbe, 0x05, 0x0a, 0xa8, 0x3c,
  0x2c, 0x7a, 0x99, 0xbe, 0x73, 0xdd, 0xd1, 0xbe, 0xb3, 0x6f, 0x07, 0xbf,
  0x17, 0x3e, 0x55, 0xbd, 0xaf, 0xde, 0x86, 0xbd, 0xa5, 0xfd, 0xa1, 0xbe,
  0xfc, 0xec, 0x27, 0xbe, 0x89, 0xd2, 0x79, 0x3e, 0x92, 0x35, 0x0a, 0x3b,
  0x33, 0x75, 0xb7, 0xbe, 0x1f, 0x00, 0xc6, 0xbe, 0xb9, 0xcc, 0xcd, 0x3e,
  0x59, 0x90, 0x13, 0xbe, 0xe1, 0xa6, 0x4f, 0xbe, 0x1e, 0x5b, 0x1b, 0xbe,
  0x51, 0x84, 0x77, 0xbd, 0x08, 0xfb, 0x9f, 0xbc, 0x2c, 0x85, 0x08, 0x3e,
  0xd4, 0x18, 0x5b, 0xbe, 0x64, 0xba, 0x0a, 0xbd, 0xee, 0x15, 0x70, 0xbd,
  0x6b, 0x2c, 0x63, 0x3e, 0x65, 0x6f, 0x38, 0xbe, 0x9c, 0xe0, 0x96, 0xbd,
  0x08, 0x13, 0x2b, 0x3e, 0x1c, 0x59, 0xe2, 0xbe, 0xbe, 0x2a, 0x27, 0xbf,
  0xe5, 0xcd, 0xc8, 0x3d, 0xb9, 0x60, 0x8a, 0xbd, 0xf8, 0x43, 0xb5, 0xbe,
  0xc8, 0x65, 0x4f, 0xbd, 0xfb, 0x2b, 0x40, 0x3d, 0xf3, 0x91, 0xb3, 0x3d,
  0x02, 0xeb, 0x8b, 0x3e, 0xbc, 0x3d, 0xbe, 0xbe, 0xc8, 0x1a, 0xb7, 0x3b,
  0x33, 0x44, 0xc2, 0x3c, 0x36, 0xc8, 0xf6, 0x3d, 0x54, 0x9f, 0x71, 0xbe,
  0x5a, 0x8e, 0xc6, 0xbd, 0x75, 0xc7, 0x16, 0xbf, 0x7d, 0x04, 0x56, 0xbd,
  0xf1, 0x37, 0x05, 0xbf, 0x06, 0x8f, 0xf8, 0xbd, 0x30, 0x09, 0xa9, 0x3d,
  0xf9, 0x55, 0xfd, 0x3d, 0x00, 0xa2, 0x5d, 0xbe, 0xe0, 0x6e, 0x11, 0xbe,
  0x10, 0x15, 0xc4, 0xbe, 0x52, 0xd8, 0x16, 0x3d, 0x50, 0xa0, 0xc8, 0xbe,
  0x7a, 0x32, 0x13, 0xbe, 0x42, 0x9f, 0xee, 0x3d, 0x30, 0x4c, 0x0f, 0xbd,
  0x59, 0x43, 0x4c, 0xbe, 0xbe, 0xe0, 0xeb, 0xbd, 0xe2, 0x41, 0xe0, 0x3d,
  0x6b, 0x54, 0x2e, 0x3e, 0x47, 0x24, 0x64, 0xbd, 0xc2, 0x05, 0x96, 0xbe,
  0x16, 0x28, 0x20, 0xbd, 0x6d, 0x5f, 0xdf, 0xbe, 0x74, 0x6c, 0xf1, 0xbd,
  0x29, 0x2f, 0x05, 0xbe, 0x49, 0xce, 0x29, 0x3d, 0xb5, 0x7f, 0xb3, 0xbd,
  0xbf, 0x27, 0x32, 0x3e, 0x65, 0xae, 0x29, 0xbe, 0x63, 0x76, 0xa2, 0x3c,
  0x2c, 0xdd, 0x3e, 0xbe, 0x4c, 0x47, 0x84, 0xbe, 0xb9, 0xde, 0xa6, 0xbd,
  0x37, 0x42, 0x59, 0xbe, 0xf9, 0xe1, 0x40, 0xbe, 0xfd, 0x4f, 0x8d, 0xbe,
  0x26, 0x78, 0xfe, 0xbb, 0x71, 0xd4, 0x32, 0xbe, 0x42, 0x59, 0x07, 0xbe,
  0x46, 0xf5, 0x4e, 0xbe, 0x22, 0x02, 0x7e, 0xbe, 0x08, 0xcd, 0x78, 0x3d,
  0x44, 0xd1, 0x87, 0xbc, 0xdb, 0x44, 0xbb, 0x3d, 0xc2, 0x82, 0xd1, 0x3c,
  0x39, 0xd3, 0x40, 0xbe, 0xa4, 0x26, 0xfe, 0xbd, 0x24, 0xfc, 0x94, 0x3e,
  0x79, 0xf6, 0x21, 0xbc, 0x58, 0x5a, 0x01, 0x3e, 0x1e, 0xcd, 0xcd, 0xbe,
  0xb4, 0xff, 0x0e, 0xbe, 0x0e, 0xf6, 0xaf, 0x3d, 0x62, 0x55, 0x2e, 0xbe,
  0xab, 0xd1, 0xfd, 0xbe, 0x9f, 0x02, 0x2c, 0xbd, 0x70, 0xb3, 0x8a, 0xbe,
  0x2f, 0x04, 0xca, 0xbb, 0x66, 0xa8, 0x83, 0xbe, 0x67, 0x8a, 0xc3, 0xbd,
  0xa0, 0x97, 0x6a, 0x3e, 0x9c, 0xfb, 0x28, 0xbe, 0xa2, 0xa7, 0x6d, 0xbf,
  0xa8, 0xf9, 0x71, 0x3e, 0xe8, 0xc0, 0x9c, 0xbe, 0xa0, 0x5b, 0x7e, 0xbd,
  0x85, 0xe4, 0x01, 0xbf, 0xa0, 0x7a, 0x04, 0xbe, 0x65, 0x50, 0xeb, 0x3b,
  0x4a, 0x55, 0x61, 0xbe, 0x7b, 0xd7, 0x40, 0xbf, 0x0e, 0xd1, 0x40, 0x3d,
  0xda, 0xf6, 0x33, 0xbe, 0xe9, 0x46, 0x08, 0xbe, 0xfc, 0xaf, 0x10, 0xbe,
  0x9f, 0xa2, 0x10, 0xbe, 0xc1, 0x75, 0x51, 0x3e, 0x20, 0x84, 0x62, 0xbe,
  0xb2, 0x5d, 0x51, 0xbf, 0x5f, 0x71, 0x24, 0xbe, 0xd9, 0x72, 0x9a, 0xbc,
  0x4c, 0xe2, 0xf3, 0xbb, 0x39, 0x53, 0x17, 0x3e, 0x9e, 0x8f, 0x3c, 0xbd,
  0xac, 0xaa, 0x30, 0xbf, 0x00, 0x4e, 0x85, 0xbd, 0xfb, 0x67, 0x4c, 0xbe,
  0x04, 0x7d, 0xe2, 0xbc, 0xbb, 0xdf, 0x8c, 0xbe, 0x4b, 0x41, 0x38, 0xbe,
  0xf9, 0xaa, 0x84, 0x3d, 0x87, 0x4a, 0xa2, 0x3d, 0x06, 0x9c, 0x48, 0xbf,
  0xfc, 0xf9, 0xc0, 0xbd, 0x25, 0x99, 0x62, 0xbe, 0x4e, 0x33, 0x30, 0x3e,
  0x23, 0xbe, 0x5c, 0xbe, 0x65, 0x16, 0x24, 0x3d, 0xed, 0x24, 0x60, 0xbd,
  0x83, 0x50, 0x60, 0x3e, 0xb4, 0x43, 0x98, 0xbe, 0xf6, 0xa1, 0x39, 0x3d,
  0x77, 0xfc, 0x89, 0xbe, 0x55, 0xb2, 0x28, 0x3c, 0x5b, 0xa3, 0xc0, 0xb9,
  0xaa, 0x65, 0x5b, 0x3d, 0xea, 0xa6, 0xaf, 0x3d, 0x5b, 0xdf, 0x9e, 0x3e,
  0xb8, 0x81, 0x88, 0xbe, 0x1b, 0x45, 0x09, 0x3d, 0x4d, 0x07, 0xda, 0xbd,
  0x98, 0x3b, 0x00, 0xbf, 0x59, 0xa7, 0xa7, 0x3e, 0x24, 0x7f, 0x8b, 0xbe,
  0xee, 0x54, 0x98, 0xbd, 0xcd, 0x9e, 0xd2, 0x3e, 0xc5, 0x48, 0x0f, 0xbe,
  0xe3, 0xc2, 0x44, 0x3e, 0x63, 0x48, 0x94, 0xbc, 0xe1, 0x94, 0xed, 0xbe,
  0xc3, 0x6f, 0xb0, 0x3d, 0xb7, 0x83, 0xd2, 0xbe, 0x49, 0x62, 0xb3, 0xbd,
  0x39, 0xb6, 0x39, 0x3c, 0x71, 0x61, 0xe2, 0xbd, 0x9a, 0xef, 0x5d, 0x3a,
  0xda, 0x12, 0xc2, 0xbd, 0x1e, 0x87, 0x3d, 0xbe, 0xec, 0xef, 0x3b, 0x3e,
  0x9c, 0x4f, 0xaf, 0xbe, 0x67, 0x67, 0xcb, 0x3c, 0xc5, 0xe2, 0xfb, 0x3d,
  0x16, 0x2b, 0xb4, 0xbd, 0x51, 0x2a, 0x17, 0xbc, 0xa6, 0xed, 0xa0, 0xbc,
  0xbe, 0x5b, 0xc2, 0xbe, 0xfa, 0xbb, 0x04, 0xbd, 0x37, 0x34, 0xaa, 0xbe,
  0xc0, 0x1d, 0x3f, 0xbc, 0xb3, 0x47, 0xb4, 0xbd, 0xf1, 0xed, 0x5f, 0xbe,
  0x58, 0x6c, 0xc5, 0x3d, 0xa0, 0x81, 0xd4, 0xbd, 0x15, 0xf6, 0xc8, 0x3d,
  0xf8, 0xfb, 0x8b, 0x3d, 0xc4, 0xab, 0x0d, 0x3e, 0xe7, 0xc8, 0xa8, 0x3d,
  0x87, 0xcf, 0x9e, 0x3d, 0x9e, 0x65, 0x69, 0x3e, 0x47, 0x69, 0xb1, 0x3d,
  0x06, 0x98, 0xc9, 0x3d, 0xd8, 0xee, 0x8f, 0x3e, 0xee, 0x85, 0x9c, 0xbb,
  0xb0, 0xe4, 0xf4, 0x3d, 0x29, 0x16, 0xa2, 0x3e, 0x56, 0x26, 0xf3, 0xbb,
  0x6a, 0xcb, 0xc2, 0xbd, 0xb1, 0xa0, 0x2b, 0xbe, 0x48, 0xb2, 0xd2, 0x3d,
  0x31, 0x1d, 0x04, 0xbe, 0x65, 0x33, 0xd2, 0xbd, 0x4a, 0x54, 0x4c, 0x3e,
  0xd3, 0x3b, 0x28, 0xbe, 0x21, 0x7a, 0x8d, 0xbd, 0x7f, 0xbd, 0x2f, 0xbc,
  0xf3, 0xea, 0xc2, 0x3d, 0x07, 0x92, 0xc4, 0xbd, 0x7f, 0x78, 0x7a, 0x3c,
  0xca, 0x93, 0x15, 0xbc, 0xad, 0x44, 0x27, 0xbc, 0x7c, 0x44, 0x03, 0xbe,
  0xe4, 0xb2, 0xe0, 0xbd, 0x75, 0xaf, 0x75, 0x3e, 0xdf, 0x81, 0x05, 0xbe,
  0x52, 0xfe, 0xb2, 0xbd, 0xe5, 0x2e, 0xe6, 0x3d, 0xe4, 0x45, 0x8a, 0xbe,
  0x9f, 0x61, 0x3e, 0x3e, 0x67, 0x87, 0xf1, 0xbe, 0x10, 0x57, 0xe7, 0xbd,
  0x5f, 0x8e, 0x15, 0xbf, 0x6c, 0x4e, 0xcd, 0xbe, 0x23, 0xd7, 0x58, 0xbe,
  0x08, 0x45, 0x47, 0xbe, 0xfc, 0xca, 0x1f, 0x3e, 0xa5, 0x34, 0x8f, 0xbd,
  0x70, 0x2b, 0x29, 0xbd, 0xef, 0x04, 0x06, 0x3e, 0x00, 0x4f, 0x88, 0xbe,
  0x2b, 0xc7, 0xac, 0xbe, 0x47, 0xb7, 0x50, 0x3e, 0x83, 0x3a, 0x8b, 0xbe,
  0x4f, 0x78, 0x76, 0x3d, 0xcf, 0xcc, 0x9a, 0xbe, 0x33, 0x06, 0x32, 0xbc,
  0xa7, 0x23, 0x20, 0x3e, 0x9a, 0x60, 0x8c, 0x3d, 0x21, 0x9d, 0x0f, 0xbc,
  0x5b, 0xe3, 0xc6, 0x3c, 0x7f, 0x8a, 0xa4, 0xbe, 0x5a, 0x6d, 0xbb, 0xbd,
  0xdc, 0x7f, 0x9b, 0xbe, 0x4e, 0x4a, 0xcb, 0xbd, 0xbf, 0x78, 0x02, 0xbd,
  0x6c, 0xad, 0x30, 0xbe, 0xf8, 0x55, 0x85, 0xbe, 0x31, 0x86, 0xbc, 0x3c,
  0x96, 0x92, 0xb8, 0x3b, 0x7a, 0x6c, 0x38, 0xbe, 0xdf, 0x54, 0xa8, 0xbc,
  0xb5, 0xd4, 0xe7, 0xbd, 0x13, 0x37, 0x2f, 0x3e, 0x9c, 0xf3, 0x0d, 0xbf,
  0x26, 0xa2, 0xc4, 0x3d, 0x85, 0x52, 0x8e, 0xbe, 0xb9, 0x27, 0x3c, 0x3c,
  0x08, 0x7e, 0xe9, 0xbe, 0x2d, 0x59, 0x12, 0xbd, 0x80, 0xf4, 0xa3, 0xbd,
  0x5b, 0x0f, 0xe3, 0xbd, 0x39, 0xa0, 0x02, 0xbf, 0x1b, 0x89, 0x74, 0xbd,
  0x83, 0x80, 0xa3, 0xbe, 0x6f, 0xbf, 0x3c, 0xbd, 0xcf, 0x8f, 0x16, 0xbe,
  0x30, 0x97, 0x74, 0x3e, 0x8e, 0x15, 0x83, 0xbe, 0x5a, 0x78, 0xca, 0xbd,
  0x6c, 0xa0, 0xcb, 0xbe, 0x4f, 0xab, 0xae, 0xbd, 0x73, 0x99, 0x90, 0xbe,
  0x42, 0x54, 0x25, 0xbd, 0xa3, 0xf3, 0xcb, 0x3e, 0xee, 0x54, 0x12, 0x3d,
  0xac, 0x55, 0x55, 0x3d, 0xfc, 0x72, 0xc1, 0x3e, 0x79, 0xeb, 0x1d, 0xbe,
  0x3a, 0x37, 0x52, 0xbc, 0x4b, 0x28, 0x58, 0x3e, 0xfd, 0x3c, 0x3c, 0xbd,
  0x8d, 0x64, 0xf8, 0x3d, 0x91, 0x23, 0x3a, 0xbe, 0x33, 0xbd, 0xb5, 0xbc,
  0x89, 0xe6, 0xc4, 0xbe, 0xfa, 0x54, 0x02, 0xbf, 0x0c, 0x98, 0x41, 0xbe,
  0x31, 0xb8, 0xcc, 0xbe, 0xcf, 0x7e, 0xae, 0xbd, 0x3d, 0x31, 0x90, 0xbe,
  0xd0, 0xee, 0x9f, 0xbe, 0x6f, 0xb2, 0xf8, 0xbc, 0xa3, 0xa0, 0x68, 0x3e,
  0x99, 0xc1, 0x8a, 0xbf, 0x0d, 0xdb, 0x2e, 0xbe, 0xab, 0x82, 0xde, 0xbe,
  0x8a, 0x9d, 0x51, 0x3e, 0xcb, 0x2f, 0x61, 0xbe, 0x21, 0x66, 0x35, 0x3e,
  0xdb, 0x76, 0xd6, 0xbc, 0x89, 0x93, 0x6f, 0xbb, 0x3b, 0x13, 0xdc, 0xbd,
  0xc9, 0x92, 0x12, 0xbd, 0x68, 0xe8, 0xe4, 0xbe, 0xbc, 0x62, 0xac, 0x3d,
  0x6a, 0x2d, 0xc0, 0x3e, 0x03, 0x67, 0x34, 0x3e, 0x8f, 0xd0, 0x08, 0xbe,
  0x69, 0xba, 0x04, 0x3e, 0x2e, 0xb2, 0xc6, 0x3d, 0x5d, 0x61, 0x20, 0x3e,
  0xcc, 0x7f, 0x48, 0xbe, 0xe0, 0xd2, 0x02, 0x3c, 0xe6, 0xa8, 0xaf, 0xbe,
  0x03, 0xe3, 0x94, 0xbc, 0xc8, 0x97, 0xbd, 0xbe, 0x31, 0xdb, 0x84, 0x3d,
  0xd8, 0xbb, 0xdb, 0x3e, 0xef, 0xc6, 0x4b, 0xbe, 0x90, 0xbe, 0x80, 0xbe,
  0x27, 0xb7, 0xa7, 0x3c, 0xca, 0x22, 0xe0, 0xbe, 0xe8, 0x25, 0x06, 0xbe,
  0x09, 0x0e, 0xbc, 0xbe, 0xd5, 0xf0, 0x55, 0x3e, 0x94, 0x8d, 0xa5, 0x3c,
  0x3e, 0xe0, 0xf0, 0xbc, 0xb6, 0xef, 0x76, 0xbe, 0xde, 0x36, 0x24, 0x3d,
  0x44, 0xa9, 0xa7, 0xbe, 0x07, 0x74, 0x0d, 0xbe, 0x48, 0x29, 0x97, 0xbe,
  0x83, 0x09, 0x98, 0xba, 0x7e, 0x58, 0xd5, 0x3e, 0x27, 0x77, 0x7c, 0xbe,
  0x35, 0x56, 0x9f, 0xbe, 0x5e, 0xbf, 0x04, 0xbe, 0x68, 0x8b, 0xa9, 0xbe,
  0x34, 0xb6, 0x1c, 0xbe, 0x9b, 0x96, 0x8d, 0xbe, 0x93, 0x05, 0x74, 0xbd,
  0x67, 0x44, 0x20, 0xbd, 0x80, 0x90, 0xba, 0xbe, 0x79, 0xc6, 0x04, 0xbe,
  0xac, 0xfc, 0x30, 0xbf, 0xe6, 0x8f, 0x0f, 0xbf, 0x5d, 0x83, 0xb1, 0xbe,
  0xb8, 0xc1, 0xdc, 0xbe, 0xd4, 0x1e, 0x3a, 0xbf, 0xfd, 0xab, 0xcb, 0xbe,
  0xc3, 0x39, 0xe7, 0xbe, 0xa0, 0x51, 0x8b, 0xbe, 0x65, 0x9f, 0x00, 0xbd,
  0x94, 0x5f, 0x67, 0x3a, 0x9b, 0x0e, 0x11, 0x3e, 0x18, 0x4f, 0x73, 0x3e,
  0x15, 0xfc, 0x23, 0xbd, 0x66, 0xf4, 0x97, 0x3d, 0x22, 0xa4, 0x30, 0xbd,
  0xc8, 0xd9, 0x02, 0x3e, 0x8d, 0xbd, 0xb4, 0xbd, 0x11, 0xa4, 0x90, 0xbd,
  0xc6, 0xb3, 0x2c, 0xbc, 0x62, 0x0f, 0x40, 0x3e, 0x95, 0x18, 0xdd, 0xbc,
  0xe7, 0x0c, 0x59, 0xbd, 0xcd, 0x78, 0x4c, 0xbc, 0x91, 0x4f, 0xee, 0x3d,
  0x4d, 0xbd, 0x00, 0x3e, 0x79, 0x58, 0x74, 0xbd, 0xd1, 0xed, 0x9b, 0x3d,
  0xe3, 0x51, 0xeb, 0x3d, 0x2c, 0x22, 0x28, 0x3d, 0xc3, 0xbb, 0xa9, 0xbd,
  0x2a, 0xf8, 0x6a, 0xbc, 0xf5, 0x97, 0xe2, 0x3d, 0x00, 0x3e, 0x57, 0xbe,
  0xf2, 0x6e, 0x33, 0xbb, 0x9f, 0x49, 0x1f, 0xbe, 0x1b, 0x49, 0x72, 0x3d,
  0x01, 0x93, 0x0a, 0xbd, 0x7c, 0xc1, 0x5e, 0xbe, 0xd5, 0xcf, 0x1f, 0xbe,
  0xda, 0xc2, 0x3a, 0xbe, 0x40, 0x9d, 0x71, 0xbd, 0x37, 0xde, 0x57, 0xbe,
  0x15, 0xba, 0xbc, 0xbe, 0x35, 0x5e, 0x91, 0xba, 0x91, 0x70, 0x0a, 0x3f,
  0x8e, 0x9e, 0x48, 0xbf, 0xc5, 0xac, 0x22, 0xbd, 0x11, 0xe4, 0x10, 0xbf,
  0x81, 0x4e, 0x87, 0x3d, 0xdc, 0xad, 0x98, 0xbe, 0x2c, 0x45, 0xaf, 0xbd,
  0x32, 0x5e, 0x9e, 0x3d, 0xc7, 0x88, 0x96, 0xbd, 0x14, 0x13, 0x41, 0x3c,
  0x02, 0x3c, 0xf5, 0x3d, 0x27, 0x5c, 0xb0, 0xbe, 0xa9, 0x88, 0x94, 0x3d,
  0x41, 0x2a, 0x02, 0x3e, 0xce, 0x95, 0xbf, 0x3d, 0x2e, 0xb2, 0x0f, 0x3c,
  0x8c, 0x65, 0x4f, 0xbe, 0x78, 0xe6, 0x10, 0x3d, 0xe2, 0x86, 0xc5, 0xbc,
  0xbf, 0x61, 0xe5, 0xbe, 0x34, 0xa2, 0xc3, 0xbe, 0xa5, 0xbe, 0x05, 0x3c,
  0x25, 0x19, 0x60, 0xbe, 0xdc, 0xfc, 0x08, 0xbe, 0x0e, 0xe7, 0x03, 0xbf,
  0x69, 0x1d, 0xa0, 0x3e, 0x2b, 0x77, 0x0f, 0x3e, 0xaa, 0xd2, 0x13, 0xbc,
  0xec, 0x4c, 0xe8, 0xbe, 0xb3, 0x76, 0xd9, 0xbb, 0x6f, 0x97, 0x62, 0xbd,
  0x36, 0x89, 0xff, 0xbc, 0xb3, 0x18, 0x25, 0xbf, 0x04, 0x54, 0xa9, 0x3e,
  0xa9, 0x5e, 0x45, 0x3e, 0xad, 0xdf, 0x75, 0xbd, 0xe4, 0x84, 0x45, 0xbe,
  0x33, 0xb8, 0x11, 0xbe, 0x07, 0x5e, 0xbc, 0xbd, 0x60, 0x78, 0x33, 0xbd,
  0x9b, 0xc8, 0x0c, 0xbf, 0xb9, 0xaf, 0x4a, 0x3d, 0x8a, 0xe8, 0xe6, 0x3d,
  0x39, 0xcb, 0xd1, 0x3d, 0xb3, 0xf8, 0xad, 0xbd, 0x26, 0xea, 0x1a, 0xbe,
  0xac, 0xc9, 0x76, 0xbe, 0xff, 0xf4, 0xcf, 0x3e, 0xd6, 0x78, 0xca, 0xbe,
  0xd7, 0xcd, 0x9d, 0xbd, 0xdb, 0x72, 0x3a, 0xbd, 0x35, 0x44, 0x97, 0x3d,
  0x0a, 0xdf, 0xff, 0xff, 0x10, 0x00, 0x00, 0x00, 0x08, 0x00, 0x00, 0x00,
  0x1c, 0x00, 0x00, 0x00, 0x38, 0x00, 0x00, 0x00, 0x04, 0x00, 0x00, 0x00,
  0x10, 0x00, 0x00, 0x00, 0x04, 0x00, 0x00, 0x00, 0x01, 0x00, 0x00, 0x00,
  0x08, 0x00, 0x00, 0x00, 0x1a, 0x00, 0x00, 0x00, 0x73, 0x65, 0x71, 0x75,
  0x65, 0x6e, 0x74, 0x69, 0x61, 0x6c, 0x2f, 0x63, 0x6f, 0x6e, 0x76, 0x32,
  0x64, 0x5f, 0x31, 0x2f, 0x43, 0x6f, 0x6e, 0x76, 0x32, 0x44, 0x00, 0x00,
  0x04, 0xdf, 0xff, 0xff, 0xfa, 0xdf, 0xff, 0xff, 0x04, 0x00, 0x00, 0x00,
  0x80, 0x01, 0x00, 0x00, 0x1b, 0x1d, 0xbc, 0x3d, 0x82, 0xb6, 0x02, 0x3e,
  0x05, 0x69, 0xe9, 0x3e, 0x0d, 0x9e, 0xe9, 0xbd, 0xaa, 0x5c, 0xfd, 0xbd,
  0x4c, 0xf1, 0xf6, 0xba, 0x75, 0x94, 0x1b, 0x3e, 0x82, 0x4d, 0x80, 0xbd,
  0x46, 0xf8, 0xb0, 0x3d, 0xed, 0xc4, 0x27, 0x3d, 0x12, 0xe2, 0x41, 0x3e,
  0xff, 0x86, 0x5b, 0x3e, 0x4f, 0x77, 0xa3, 0x3d, 0x51, 0x66, 0x0b, 0xbe,
  0xc2, 0xf1, 0x76, 0xbe, 0x5a, 0x06, 0xe9, 0x3d, 0x31, 0x7e, 0xe3, 0x3c,
  0xd5, 0x0f, 0xa1, 0xbe, 0x7c, 0x0b, 0x33, 0xbe, 0xa0, 0xd6, 0x80, 0xbe,
  0xe2, 0x06, 0xe1, 0xbd, 0x28, 0xb1, 0x09, 0x3e, 0xcb, 0xed, 0x23, 0xbe,
  0x5a, 0x49, 0xdd, 0xbe, 0x14, 0xdf, 0x88, 0x3d, 0x77, 0xe7, 0x4a, 0x3d,
  0xbe, 0xbb, 0xda, 0x3e, 0x0e, 0x8d, 0xb6, 0x3d, 0x49, 0xdf, 0x63, 0x3d,
  0xda, 0x48, 0x93, 0x3e, 0x5c, 0x8e, 0x4d, 0xbc, 0xa7, 0x59, 0x5e, 0xbd,
  0x3a, 0x7a, 0x3b, 0xbe, 0x00, 0x8a, 0x3b, 0xbe, 0xdf, 0x37, 0x28, 0xbb,
  0x36, 0x2d, 0x7f, 0xbd, 0x9a, 0xca, 0x55, 0xbd, 0x3c, 0x53, 0x37, 0xbc,
  0x4b, 0xae, 0xe3, 0xbe, 0xf8, 0x5e, 0x09, 0x3d, 0x77, 0x5f, 0x63, 0xbd,
  0xa6, 0xef, 0x2d, 0xbf, 0x6d, 0xb6, 0x6e, 0xbd, 0x51, 0x28, 0x17, 0x3e,
  0x2f, 0x57, 0xaa, 0xbe, 0xbe, 0x12, 0xae, 0x3d, 0x00, 0x80, 0x1d, 0x3d,
  0xf9, 0x4d, 0x35, 0x3d, 0xd2, 0xe6, 0xaa, 0x3d, 0xf2, 0x73, 0x90, 0x3d,
  0x6f, 0x80, 0x4d, 0xbe, 0xa6, 0x02, 0xae, 0x3e, 0xfb, 0x1a, 0x11, 0xbe,
  0xc0, 0xee, 0x2f, 0xbe, 0xad, 0x7d, 0xa6, 0x3d, 0x16, 0xb1, 0xfc, 0x3d,
  0xe0, 0xaa, 0x97, 0xbe, 0xb7, 0x37, 0x39, 0x3e, 0x44, 0x7c, 0xa1, 0xbc,
  0x96, 0xdd, 0xbf, 0xbe, 0x06, 0x48, 0xb2, 0xbe, 0x4f, 0xf1, 0xd2, 0x3d,
  0x30, 0xc9, 0xd6, 0x3e, 0xf5, 0x2f, 0x96, 0xbe, 0x02, 0xc4, 0x65, 0xbe,
  0xd9, 0x87, 0x07, 0x3f, 0xab, 0xcf, 0xa0, 0xbc, 0x0a, 0x91, 0x6b, 0xbe,
  0x58, 0x8f, 0xa0, 0x3d, 0x30, 0xdd, 0xf2, 0x3d, 0x9f, 0x79, 0xc7, 0x3d,
  0x68, 0x7c, 0x55, 0x3e, 0xd5, 0x62, 0x3c, 0xbd, 0xfe, 0x16, 0x2c, 0xbe,
  0x31, 0x26, 0xae, 0xbd, 0xa4, 0x62, 0x06, 0x3e, 0xde, 0x26, 0xea, 0x3c,
  0xfc, 0x8a, 0x11, 0x3e, 0x40, 0x45, 0x1c, 0xbe, 0x53, 0x04, 0xfc, 0xbd,
  0x4f, 0x5c, 0x4e, 0xbc, 0x56, 0x41, 0xdb, 0x3c, 0x1a, 0xe2, 0x22, 0xbc,
  0x2e, 0x8a, 0x88, 0x3c, 0xf1, 0x21, 0x40, 0xbd, 0x6b, 0x2c, 0xf1, 0xbd,
  0x53, 0x1d, 0x22, 0xbf, 0x9e, 0x88, 0x34, 0x3e, 0x54, 0x87, 0x2b, 0x3d,
  0x9a, 0x9b, 0x0a, 0xbf, 0x71, 0x46, 0x52, 0xbe, 0x3e, 0xfa, 0xd2, 0x3d,
  0xe6, 0xd4, 0x91, 0xbe, 0xf2, 0x5c, 0x28, 0x3e, 0xf2, 0x88, 0x12, 0xbe,
  0x30, 0x17, 0xb7, 0xbe, 0xe2, 0xe0, 0xff, 0xff, 0x10, 0x00, 0x00, 0x00,
  0x07, 0x00, 0x00, 0x00, 0x1c, 0x00, 0x00, 0x00, 0x38, 0x00, 0x00, 0x00,
  0x04, 0x00, 0x00, 0x00, 0x08, 0x00, 0x00, 0x00, 0x04, 0x00, 0x00, 0x00,
  0x03, 0x00, 0x00, 0x00, 0x01, 0x00, 0x00, 0x00, 0x18, 0x00, 0x00, 0x00,
  0x73, 0x65, 0x71, 0x75, 0x65, 0x6e, 0x74, 0x69, 0x61, 0x6c, 0x2f, 0x63,
  0x6f, 0x6e, 0x76, 0x32, 0x64, 0x2f, 0x43, 0x6f, 0x6e, 0x76, 0x32, 0x44,
  0x00, 0x00, 0x00, 0x00, 0xdc, 0xe0, 0xff, 0xff, 0xd2, 0xe1, 0xff, 0xff,
  0x04, 0x00, 0x00, 0x00, 0xc0, 0x00, 0x00, 0x00, 0xb1, 0x4b, 0x36, 0x3d,
  0x76, 0x74, 0xd8, 0xbe, 0x9d, 0x2c, 0xa0, 0xbe, 0x69, 0x9a, 0x9a, 0xbc,
  0x0c, 0xca, 0x0f, 0xbe, 0xc3, 0xb4, 0xc2, 0xbd, 0x6a, 0x5d, 0x40, 0x3e,
  0x86, 0xf4, 0x11, 0x3e, 0x09, 0xfe, 0x70, 0x3e, 0xce, 0x81, 0x15, 0x3d,
  0xf1, 0x6d, 0x06, 0xbe, 0x8c, 0x45, 0xe9, 0xbd, 0x64, 0x2e, 0x08, 0x3e,
  0x59, 0xb7, 0xcd, 0xbf, 0xea, 0x36, 0xb4, 0xbe, 0x7a, 0xc0, 0x17, 0xbf,
  0x90, 0xc7, 0xc9, 0x3e, 0x57, 0xd1, 0x63, 0x3d, 0x18, 0xfb, 0xc2, 0xbd,
  0x96, 0x11, 0x9e, 0xbe, 0x7c, 0x00, 0x7c, 0xbe, 0xa2, 0xf3, 0xe0, 0xbe,
  0xe6, 0x8a, 0x3d, 0x3e, 0x0f, 0x9c, 0xde, 0xbe, 0x9a, 0xef, 0xce, 0xbe,
  0x5e, 0x83, 0x97, 0xbf, 0x9a, 0x5f, 0x8e, 0x3e, 0x90, 0xcc, 0x6b, 0xbe,
  0x89, 0x64, 0x09, 0x3e, 0x1c, 0xc2, 0x00, 0x3e, 0x02, 0xd9, 0x96, 0x3e,
  0xd0, 0xc0, 0xc9, 0xbe, 0xe3, 0x60, 0x43, 0xbe, 0x44, 0xce, 0x90, 0x3c,
  0x89, 0xc9, 0x08, 0xbe, 0x13, 0xcb, 0x80, 0xbd, 0xde, 0x1c, 0x32, 0xbe,
  0xbf, 0xb1, 0xcb, 0xbe, 0x7f, 0x41, 0x7b, 0x3e, 0x31, 0xd7, 0xc5, 0xbe,
  0xba, 0x0a, 0x08, 0xbe, 0xce, 0xaa, 0xd0, 0xbb, 0xd2, 0xca, 0x7c, 0x3e,
  0x29, 0xbe, 0x2e, 0xbe, 0xed, 0xd7, 0x2a, 0x3e, 0x50, 0x06, 0xab, 0x3d,
  0x87, 0xba, 0x46, 0xbe, 0x8e, 0xa7, 0xe6, 0xbe, 0xfa, 0xe1, 0xff, 0xff,
  0x10, 0x00, 0x00, 0x00, 0x06, 0x00, 0x00, 0x00, 0x14, 0x00, 0x00, 0x00,
  0x30, 0x00, 0x00, 0x00, 0x02, 0x00, 0x00, 0x00, 0x03, 0x00, 0x00, 0x00,
  0x10, 0x00, 0x00, 0x00, 0x19, 0x00, 0x00, 0x00, 0x73, 0x65, 0x71, 0x75,
  0x65, 0x6e, 0x74, 0x69, 0x61, 0x6c, 0x2f, 0x64, 0x65, 0x6e, 0x73, 0x65,
  0x5f, 0x31, 0x2f, 0x4d, 0x61, 0x74, 0x4d, 0x75, 0x6c, 0x00, 0x00, 0x00,
  0xec, 0xe1, 0xff, 0xff, 0xe2, 0xe2, 0xff, 0xff, 0x04, 0x00, 0x00, 0x00,
  0x00, 0x1c, 0x00, 0x00, 0x24, 0xec, 0xd6, 0x3d, 0xf6, 0x0f, 0x2a, 0x3e,
  0xf7, 0x39, 0xca, 0xbd, 0x08, 0x53, 0x09, 0xbe, 0x7f, 0xb6, 0xa1, 0xbd,
  0x62, 0x58, 0x72, 0xbd, 0x23, 0x74, 0x20, 0xbe, 0x69, 0x40, 0xd3, 0xbc,
  0xb8, 0x91, 0x97, 0xbe, 0x5d, 0x09, 0x04, 0xbe, 0xd9, 0x8b, 0x9c, 0xbc,
  0x12, 0x82, 0x54, 0xbe, 0x91, 0x1d, 0x00, 0xbe, 0xe2, 0x21, 0x37, 0xbe,
  0xe6, 0x18, 0x8b, 0x3c, 0xf1, 0x15, 0x40, 0xbe, 0xa8, 0x5c, 0x03, 0xbd,
  0x34, 0x16, 0xfd, 0xbd, 0x9c, 0xe1, 0x30, 0x3e, 0xfa, 0x02, 0x44, 0x3e,
  0x0f, 0x10, 0x87, 0xbd, 0xd6, 0x6f, 0x1f, 0x3b, 0x93, 0xf6, 0xd6, 0x3d,
  0x18, 0x47, 0x8e, 0xbd, 0xaf, 0x30, 0x3b, 0xbe, 0x81, 0x74, 0x2b, 0x3e,
  0xd0, 0x79, 0x34, 0xbe, 0x99, 0x2c, 0x37, 0xbe, 0xa7, 0x15, 0xc3, 0x3d,
  0x37, 0xfa, 0x58, 0x3d, 0x66, 0x00, 0x60, 0xbe, 0xb3, 0x4f, 0x86, 0x3a,
  0x65, 0x67, 0xad, 0xbd, 0x70, 0xf6, 0xf2, 0x3c, 0x16, 0x25, 0x59, 0xbd,
  0x47, 0x37, 0x20, 0x3c, 0x72, 0xc2, 0xcf, 0x3d, 0x3b, 0xb8, 0x7c, 0xbe,
  0x13, 0x6b, 0x3c, 0xbe, 0x92, 0x5e, 0x87, 0xbe, 0x8e, 0x92, 0x1c, 0xbe,
  0x35, 0xa0, 0x00, 0x3e, 0x80, 0xc8, 0xcf, 0x3d, 0x61, 0x95, 0x81, 0x3d,
  0xd4, 0xdb, 0x75, 0x3d, 0x86, 0xa2, 0x0a, 0x3d, 0x29, 0x45, 0x24, 0xbe,
  0x60, 0xa4, 0x8f, 0x3d, 0x6c, 0x9b, 0x92, 0x3d, 0x6a, 0x31, 0xdb, 0x3d,
  0xa0, 0xbb, 0xc1, 0x3c, 0x56, 0x3f, 0x96, 0xbd, 0x3e, 0x66, 0x33, 0xbd,
  0x82, 0x49, 0x75, 0x3c, 0x95, 0x47, 0xe4, 0xbd, 0xf4, 0xb8, 0x20, 0x3d,
  0x81, 0xc0, 0x10, 0xbe, 0xcb, 0xb3, 0x8c, 0x3d, 0xa2, 0xcf, 0xe6, 0xbd,
  0xa4, 0x8d, 0x48, 0xbe, 0xa6, 0x4a, 0xe4, 0x3d, 0x36, 0x94, 0x29, 0xbe,
  0x8e, 0x92, 0x9a, 0xbc, 0x5a, 0xb8, 0x56, 0xbd, 0x40, 0xc3, 0x01, 0xbd,
  0x50, 0x4f, 0x2f, 0xbe, 0x8b, 0xb1, 0x07, 0xbe, 0xdb, 0xe8, 0x94, 0xbd,
  0x24, 0x31, 0xb5, 0x3d, 0x1c, 0xe2, 0x1f, 0xbe, 0x53, 0x5d, 0x23, 0xbd,
  0x70, 0xfb, 0x6b, 0xbe, 0x10, 0x26, 0x51, 0xbe, 0x1e, 0x97, 0x1f, 0x3e,
  0x2f, 0x3a, 0x7a, 0x3d, 0x9c, 0xc0, 0x28, 0x3c, 0xa2, 0x01, 0x67, 0xbd,
  0x0e, 0x24, 0xd7, 0x3d, 0x4e, 0xbe, 0x07, 0x3e, 0x27, 0x14, 0xe8, 0x3b,
  0x24, 0x3e, 0xf9, 0xbd, 0x13, 0xa9, 0x9b, 0x3d, 0xb5, 0x3c, 0xf8, 0xbd,
  0x8c, 0xcb, 0x27, 0xbe, 0xf3, 0x3a, 0x81, 0xbe, 0xe0, 0xce, 0x43, 0xbd,
  0x5e, 0x45, 0xae, 0x3d, 0x03, 0x0b, 0x67, 0xbe, 0xd0, 0x14, 0x2b, 0xbe,
  0x6a, 0xe0, 0x3d, 0xbe, 0xb8, 0x4b, 0x71, 0xbe, 0x61, 0xea, 0x80, 0xbe,
  0x9d, 0x94, 0xfe, 0x3d, 0x9e, 0xb2, 0x11, 0xbd, 0x40, 0x6f, 0xd8, 0x3d,
  0x5f, 0x35, 0xde, 0xbd, 0xb8, 0x4a, 0xc7, 0x3d, 0xa2, 0x39, 0xb2, 0x3d,
  0x15, 0x7c, 0x59, 0x3e, 0x93, 0x81, 0x14, 0x3e, 0x5e, 0xeb, 0xf8, 0x3c,
  0xcf, 0x38, 0x0d, 0xbe, 0x3d, 0x04, 0x60, 0xbe, 0xad, 0xc8, 0x91, 0xbe,
  0x55, 0xba, 0x2e, 0xbd, 0x40, 0x02, 0x79, 0xbb, 0x6c, 0x1c, 0x3f, 0x3d,
  0x62, 0xe6, 0xbc, 0x3d, 0xd3, 0xa5, 0x6c, 0xbc, 0x5d, 0x5d, 0x52, 0x3d,
  0xf2, 0x78, 0x06, 0xbe, 0xa1, 0xd2, 0x02, 0xbc, 0x46, 0xbb, 0xf9, 0x3d,
  0x11, 0x16, 0x6e, 0x3e, 0x95, 0xeb, 0xb5, 0x3e, 0x6c, 0xef, 0xf1, 0xbb,
  0xcd, 0x4b, 0x8e, 0xbb, 0x09, 0x66, 0x31, 0x3e, 0x1b, 0x0f, 0xbc, 0xba,
  0x1f, 0x79, 0x31, 0xbe, 0xa1, 0x65, 0x35, 0xbe, 0x4c, 0x40, 0x3d, 0x3d,
  0x5b, 0x05, 0x9a, 0xbd, 0x7a, 0xde, 0x27, 0xbe, 0x5e, 0xa6, 0x1f, 0x3d,
  0x18, 0x8d, 0xc6, 0xbe, 0xeb, 0x95, 0x2a, 0xbe, 0xa6, 0xa8, 0xb9, 0x3d,
  0xc5, 0x1b, 0x15, 0x3e, 0x6c, 0x75, 0x0b, 0x3e, 0x73, 0xed, 0xcb, 0xbd,
  0x7b, 0x44, 0x5c, 0x3e, 0x19, 0x52, 0x5b, 0xbe, 0x9b, 0x6f, 0x48, 0xbe,
  0x38, 0xd7, 0x15, 0xbc, 0x96, 0x4f, 0xcf, 0xbd, 0x3a, 0xea, 0x9b, 0xbd,
  0xdf, 0x93, 0xff, 0xbd, 0xc7, 0xf3, 0x9f, 0x3d, 0x64, 0x9b, 0xf9, 0xbd,
  0x6a, 0x25, 0x11, 0xbc, 0x32, 0xd4, 0x53, 0x3e, 0xda, 0xf8, 0x02, 0x3e,
  0xdc, 0xb8, 0xb9, 0x3c, 0xa0, 0x0c, 0x1b, 0xbe, 0x00, 0xf4, 0xc8, 0x3c,
  0x42, 0x4e, 0x43, 0xbd, 0x42, 0x39, 0x10, 0xbd, 0x56, 0xda, 0x0d, 0x3e,
  0x8b, 0xd1, 0xb4, 0xbd, 0xb3, 0x83, 0xbf, 0xbd, 0x7b, 0xae, 0xfe, 0xbd,
  0xa6, 0xe5, 0x21, 0xbe, 0x91, 0x20, 0x13, 0x3e, 0xd2, 0xcc, 0x83, 0x3d,
  0x42, 0x87, 0x73, 0xbe, 0x5e, 0xff, 0x21, 0x3e, 0x80, 0x88, 0x85, 0x3d,
  0x09, 0x65, 0xb8, 0xbd, 0xfe, 0x69, 0xa0, 0x3d, 0x16, 0x31, 0x2f, 0xbe,
  0xc3, 0xfe, 0x01, 0xbe, 0x49, 0xac, 0x39, 0x3e, 0xa7, 0xab, 0x0d, 0xbe,
  0x97, 0x32, 0x63, 0xbe, 0xad, 0x50, 0x14, 0xbe, 0xf6, 0x84, 0xbd, 0x3d,
  0x49, 0x54, 0x90, 0x3d, 0x0f, 0x3f, 0x09, 0xbe, 0x02, 0xe9, 0x85, 0xbe,
  0x87, 0x3a, 0x22, 0xbe, 0x71, 0x76, 0x14, 0xbe, 0x08, 0xca, 0xdb, 0xbc,
  0xc9, 0xbd, 0x2a, 0x3c, 0x4e, 0x90, 0xde, 0xbc, 0xc8, 0x19, 0xde, 0x3b,
  0x1f, 0x74, 0x58, 0xbd, 0xba, 0x8b, 0xb0, 0x3d, 0x50, 0xe8, 0x43, 0x3e,
  0xe9, 0x98, 0x71, 0x3c, 0x9b, 0xb3, 0x84, 0xbd, 0xf6, 0xfc, 0xfb, 0xbd,
  0x19, 0x09, 0x17, 0xbe, 0xb3, 0x11, 0x78, 0xbd, 0x63, 0xca, 0x2c, 0xbc,
  0x59, 0xf9, 0xbd, 0x3d, 0xec, 0x8e, 0x68, 0xbe, 0x09, 0x30, 0xd2, 0xbd,
  0x07, 0x39, 0x1a, 0x3e, 0x1d, 0xf8, 0xa7, 0xbc, 0x72, 0xcb, 0x0a, 0xbe,
  0x43, 0x45, 0xb9, 0xbc, 0x6b, 0x62, 0x66, 0x3e, 0xfa, 0xbb, 0x3a, 0x3d,
  0x6d, 0x52, 0x05, 0x3e, 0x7b, 0x74, 0x33, 0x3d, 0x00, 0xb1, 0x46, 0xbe,
  0xdc, 0x9e, 0x0a, 0x3e, 0x8d, 0xa5, 0x01, 0xbd, 0x62, 0xac, 0xa0, 0xbe,
  0x00, 0xb1, 0x1c, 0xbd, 0x57, 0xe1, 0x75, 0x3d, 0x5c, 0xf8, 0x8c, 0x3d,
  0x0d, 0xad, 0x6f, 0xbe, 0x6f, 0x4c, 0x12, 0x3d, 0xf2, 0xa3, 0xab, 0x3c,
  0xba, 0x77, 0x9e, 0xbd, 0x17, 0x89, 0xfe, 0x3c, 0xbd, 0xf1, 0x80, 0x3e,
  0x5d, 0xfe, 0xe4, 0x3d, 0xea, 0x7b, 0xc9, 0x3e, 0x7e, 0xe5, 0x9f, 0x3e,
  0x93, 0x94, 0x79, 0xbe, 0x21, 0xa7, 0x8f, 0xbd, 0x33, 0x7c, 0x84, 0xbd,
  0xcb, 0x6b, 0xd6, 0xbd, 0x36, 0x6f, 0xe9, 0xbd, 0x93, 0x4e, 0xa5, 0xbc,
  0xe9, 0x68, 0x89, 0xbe, 0x91, 0x17, 0x8c, 0x3b, 0x83, 0x89, 0xd4, 0xbe,
  0xf4, 0x63, 0x3c, 0x3e, 0x3b, 0x14, 0xea, 0xbd, 0x4d, 0x35, 0xdd, 0x3d,
  0xe2, 0x81, 0xbd, 0x3e, 0x44, 0x6d, 0x75, 0x3e, 0x98, 0xfc, 0xc6, 0x3e,
  0xd8, 0x4a, 0x9b, 0xbe, 0xfc, 0xb9, 0xd6, 0xbd, 0xc2, 0x68, 0x9a, 0xbe,
  0x15, 0x94, 0x82, 0xbe, 0x02, 0xb5, 0xc1, 0xbe, 0x1a, 0xbb, 0x1a, 0xbe,
  0xa9, 0xa7, 0x12, 0xbe, 0x80, 0x57, 0x65, 0xbe, 0x00, 0xc9, 0xa4, 0x3d,
  0xd0, 0x75, 0x70, 0x3d, 0xa2, 0x66, 0xe1, 0xbe, 0xab, 0x99, 0x94, 0xbe,
  0xb0, 0xdd, 0xbd, 0x3d, 0xce, 0x86, 0x1e, 0xbe, 0x63, 0x9b, 0xb8, 0xbd,
  0x26, 0x70, 0xd7, 0xbc, 0x97, 0x78, 0x98, 0x3e, 0x13, 0xac, 0xba, 0xbd,
  0xdb, 0xf8, 0xd6, 0xbe, 0x8f, 0x55, 0x4b, 0xbe, 0x29, 0x0b, 0xe3, 0xbb,
  0x8a, 0x0f, 0xb1, 0xbd, 0x16, 0x0a, 0x46, 0x3d, 0xe4, 0xdd, 0x88, 0xbe,
  0x43, 0xe5, 0x9f, 0xbd, 0x01, 0xa7, 0xe1, 0xbe, 0xea, 0x45, 0x9b, 0x3e,
  0xbd, 0xef, 0xad, 0xbd, 0x9b, 0xa1, 0x90, 0x3b, 0xfd, 0x89, 0x87, 0xbe,
  0xd3, 0xa7, 0x6b, 0xbd, 0xa4, 0x30, 0xd4, 0x3c, 0xb8, 0x40, 0xd7, 0xbc,
  0x75, 0x6a, 0x63, 0xbc, 0x2a, 0x3e, 0x50, 0xbe, 0x07, 0x31, 0xbe, 0x3d,
  0xaa, 0x61, 0x24, 0xbc, 0xa4, 0xb9, 0x7e, 0xbd, 0x05, 0xa1, 0x90, 0x3d,
  0xb0, 0xa3, 0x73, 0x3c, 0xff, 0x77, 0xf8, 0x3c, 0x34, 0xa2, 0x78, 0x3d,
  0xab, 0x2c, 0x44, 0x3e, 0xa9, 0xe6, 0xd2, 0xbd, 0xec, 0x67, 0x96, 0xbd,
  0xf7, 0xec, 0xdd, 0xbd, 0x81, 0xac, 0xb6, 0xbd, 0xfd, 0xa6, 0x85, 0xbc,
  0x8c, 0x3a, 0xa1, 0x3c, 0x55, 0x4d, 0x4e, 0x3d, 0x55, 0x6a, 0x38, 0xbe,
  0x30, 0x4f, 0x0b, 0xbe, 0x56, 0x14, 0x38, 0xbd, 0xc7, 0xc1, 0x99, 0xbc,
  0xc9, 0xdb, 0xba, 0xbe, 0x69, 0xf8, 0x88, 0xbd, 0x84, 0x1a, 0x3b, 0xbe,
  0x64, 0x71, 0xd0, 0xbc, 0xe5, 0xa9, 0x88, 0x3e, 0x7a, 0xde, 0xd3, 0xbd,
  0xea, 0xde, 0x67, 0xbd, 0xd4, 0x3c, 0xbc, 0x3c, 0xcb, 0xe1, 0x66, 0x3e,
  0x61, 0xf5, 0xc0, 0x3c, 0x18, 0x66, 0x6b, 0xbd, 0x16, 0xc9, 0x41, 0x3e,
  0x8c, 0xfe, 0x86, 0x3d, 0x6e, 0x82, 0x36, 0x3b, 0x28, 0x50, 0x10, 0xbd,
  0x81, 0xce, 0xe5, 0xbc, 0x27, 0x5b, 0x72, 0xbe, 0xa4, 0x5a, 0x0f, 0x3d,
  0xee, 0xcd, 0x4a, 0xbe, 0x8f, 0x36, 0xb3, 0xbd, 0x89, 0x55, 0x86, 0x3e,
  0xfe, 0x11, 0x65, 0x3d, 0x1a, 0x15, 0x0b, 0x3d, 0xab, 0xf2, 0xa9, 0x3d,
  0x69, 0xf1, 0xb8, 0x3d, 0x32, 0xea, 0x02, 0x3f, 0xd2, 0x39, 0x06, 0x3c,
  0x2d, 0x2e, 0x99, 0x3d, 0x46, 0x6a, 0x47, 0x3c, 0xb5, 0x61, 0x8b, 0xbe,
  0x16, 0xc1, 0x37, 0xbd, 0x44, 0xd4, 0x25, 0x3b, 0x55, 0x82, 0x6a, 0xbe,
  0xfb, 0xa9, 0x8c, 0xbe, 0xe0, 0x6e, 0x5e, 0xbd, 0x64, 0xeb, 0xd3, 0x3d,
  0x97, 0x10, 0x21, 0x3e, 0xf3, 0x3b, 0x89, 0xbc, 0x17, 0x59, 0x03, 0x3e,
  0xad, 0x08, 0x51, 0x3e, 0xf4, 0x61, 0xf1, 0x3e, 0x14, 0x70, 0x07, 0x3f,
  0x8c, 0xcd, 0x07, 0x3e, 0xf9, 0xe9, 0x17, 0xbe, 0x0f, 0xb0, 0x46, 0xbe,
  0xdf, 0xc5, 0xdc, 0x3c, 0xa5, 0x90, 0x12, 0xbd, 0xea, 0x40, 0xf0, 0x3a,
  0xbd, 0x5f, 0xa8, 0xbe, 0x0a, 0x1c, 0xcc, 0x3d, 0x10, 0xdc, 0x8c, 0x3b,
  0x12, 0xfc, 0x76, 0xbe, 0x4e, 0x6c, 0x12, 0x3e, 0x94, 0x06, 0xb9, 0x3d,
  0x47, 0x32, 0x75, 0x3e, 0x7d, 0x2f, 0x05, 0xbe, 0x03, 0x54, 0x63, 0xbd,
  0x5e, 0xee, 0x79, 0xbe, 0x55, 0x10, 0x02, 0xbf, 0xa6, 0xa5, 0xce, 0x3e,
  0x16, 0xf3, 0xf7, 0x3d, 0x35, 0x2c, 0xc0, 0x3d, 0x38, 0x94, 0x0e, 0xbf,
  0x17, 0xe4, 0xb1, 0xbd, 0x7b, 0x41, 0xc0, 0xbe, 0x26, 0x0c, 0xa4, 0x3e,
  0xa4, 0xed, 0xc2, 0x3e, 0xec, 0xf8, 0x0e, 0x3d, 0x08, 0x93, 0x16, 0xbe,
  0xa4, 0x6a, 0x01, 0x3f, 0x84, 0x8f, 0x9d, 0xbe, 0xae, 0x19, 0xd2, 0xbd,
  0xcd, 0xba, 0xa8, 0x3e, 0xe6, 0x16, 0x45, 0xbe, 0x7d, 0x15, 0x4c, 0xbe,
  0x82, 0x0e, 0x50, 0x3f, 0x75, 0xb4, 0xac, 0x3d, 0x1d, 0xf2, 0x9a, 0x3d,
  0x7a, 0x47, 0xa0, 0xbb, 0xda, 0xf5, 0xe2, 0xbd, 0xdb, 0xfb, 0xeb, 0x3e,
  0x14, 0x7a, 0x9a, 0x3e, 0x19, 0x44, 0x44, 0x3d, 0x5a, 0xed, 0x4a, 0xbe,
  0xc6, 0x6f, 0x0b, 0x3e, 0x3d, 0x50, 0xf6, 0xbd, 0x22, 0x3d, 0x44, 0xbe,
  0xed, 0x17, 0xc4, 0xbe, 0x3d, 0x52, 0x10, 0x3f, 0x29, 0x63, 0x01, 0xbb,
  0x13, 0x99, 0xfe, 0xbc, 0x7e, 0xa9, 0xdf, 0x3e, 0x04, 0xd9, 0x99, 0x3d,
  0x83, 0x61, 0xf1, 0x3b, 0x39, 0x21, 0x07, 0x3c, 0x9b, 0x5f, 0x23, 0xbd,
  0xc2, 0x14, 0x5a, 0xbd, 0x97, 0x4e, 0xf6, 0xbb, 0x15, 0x5d, 0x59, 0xb8,
  0xd4, 0x42, 0xd0, 0xbd, 0x28, 0x64, 0xda, 0x3b, 0xab, 0x64, 0xa2, 0x3e,
  0x93, 0xa0, 0x3f, 0xbe, 0xed, 0x33, 0x88, 0xbd, 0xef, 0x63, 0x25, 0x3e,
  0x92, 0x81, 0x69, 0x3d, 0x38, 0x0a, 0xc6, 0x3d, 0x5b, 0xbf, 0xf2, 0x3e,
  0x26, 0x47, 0x14, 0xbe, 0x2b, 0x37, 0xbe, 0x3c, 0x09, 0x61, 0x0c, 0x3e,
  0x16, 0x86, 0xcd, 0xbd, 0xa6, 0x4e, 0x1f, 0x3e, 0x67, 0x04, 0x3b, 0xbc,
  0x6c, 0xb3, 0x17, 0x3e, 0x38, 0x33, 0x47, 0xbe, 0x9a, 0x1b, 0x40, 0xbe,
  0x65, 0xaa, 0xc8, 0x3e, 0x46, 0x78, 0xec, 0xbd, 0x5b, 0xba, 0x0b, 0x3d,
  0xc2, 0xec, 0x83, 0x3e, 0x02, 0x2c, 0x94, 0xbd, 0x4c, 0x8c, 0x26, 0xbe,
  0x96, 0xf6, 0xf4, 0x3e, 0xb7, 0xe8, 0x1b, 0x3d, 0xbc, 0xbf, 0x24, 0x3e,
  0x1e, 0x56, 0xde, 0x3a, 0xcf, 0xa1, 0x82, 0x3b, 0xb6, 0x19, 0xdf, 0xbd,
  0xdd, 0xfc, 0x55, 0xbd, 0x64, 0x60, 0x97, 0xbc, 0xb2, 0xbd, 0x02, 0xbe,
  0xc2, 0x9e, 0xdb, 0xbc, 0xe3, 0x68, 0xdd, 0x3e, 0x08, 0x82, 0x83, 0xbe,
  0xa3, 0x24, 0x2b, 0xbe, 0x4e, 0x9c, 0xdd, 0x3e, 0x42, 0xac, 0x05, 0xbe,
  0x1a, 0x42, 0xfc, 0xbd, 0xd7, 0x52, 0xce, 0x3e, 0x05, 0x70, 0x2d, 0xbd,
  0x04, 0xde, 0x96, 0x3e, 0x52, 0x5f, 0x39, 0x3d, 0x94, 0x19, 0xf8, 0xbc,
  0x31, 0xbf, 0xd5, 0x3d, 0xf8, 0xf7, 0x5d, 0x3e, 0x1c, 0x74, 0x94, 0x3e,
  0x56, 0x6e, 0x00, 0xbf, 0xc2, 0x07, 0xfe, 0xbd, 0x8d, 0x15, 0xdd, 0x3e,
  0x51, 0x6e, 0xb0, 0xbe, 0xee, 0x20, 0x40, 0xbd, 0xe0, 0x26, 0x36, 0xbc,
  0x98, 0x5c, 0x7b, 0x3d, 0x97, 0x2d, 0xd5, 0xbd, 0x53, 0x31, 0xa7, 0x3e,
  0x2f, 0x49, 0x1a, 0xbe, 0x7d, 0xbe, 0x24, 0x3e, 0x34, 0xd4, 0xe8, 0xbc,
  0xa1, 0xb8, 0x96, 0xbd, 0x9e, 0x94, 0x9c, 0x3e, 0x8e, 0x97, 0xbe, 0x3e,
  0x47, 0x1c, 0x2e, 0x3e, 0x41, 0x13, 0x9e, 0xba, 0xef, 0x85, 0x0d, 0x3e,
  0x7a, 0xc8, 0x10, 0x3e, 0xa9, 0x43, 0x51, 0xbe, 0x1b, 0x0d, 0x1b, 0xbe,
  0xec, 0xf4, 0xa0, 0x3c, 0xa1, 0xe6, 0x99, 0x3b, 0x6b, 0x77, 0xd9, 0xbe,
  0x97, 0x58, 0xed, 0x3e, 0x1b, 0xcd, 0x3c, 0xbd, 0x37, 0x80, 0x23, 0x3e,
  0x72, 0x29, 0xf4, 0xbe, 0xe8, 0xb3, 0xfa, 0xbc, 0x58, 0xa9, 0x9f, 0xbe,
  0xa8, 0x2f, 0x92, 0x3e, 0xb8, 0x70, 0xb3, 0x3e, 0xdd, 0xd9, 0xc5, 0x3d,
  0x7b, 0x2d, 0xc2, 0xbe, 0x3a, 0x52, 0xf2, 0x3e, 0x3b, 0xc0, 0xbf, 0xbd,
  0xd0, 0xb4, 0x05, 0xbe, 0xab, 0xb3, 0x90, 0x3e, 0xa0, 0x4b, 0xf7, 0x3d,
  0x10, 0x55, 0x51, 0xbe, 0x81, 0xce, 0x46, 0x3f, 0x1e, 0xf1, 0x86, 0x3d,
  0x2a, 0xe8, 0xef, 0xbb, 0x93, 0xf2, 0xaa, 0xbd, 0x56, 0x72, 0xa6, 0xbd,
  0xa0, 0x4c, 0x88, 0x3e, 0x88, 0x39, 0x42, 0x3e, 0xb6, 0x95, 0xc7, 0x3d,
  0x45, 0x2b, 0x26, 0xbe, 0xa1, 0x79, 0x0d, 0x3e, 0x1c, 0x74, 0x39, 0x3e,
  0xa2, 0x8d, 0x8a, 0xbe, 0x76, 0x04, 0x3b, 0xbe, 0x56, 0x56, 0x92, 0x3e,
  0x09, 0xb5, 0x60, 0xbc, 0x6a, 0xa4, 0x44, 0xbd, 0xee, 0x4c, 0x16, 0x3f,
  0x9e, 0x23, 0x05, 0xbd, 0x72, 0xf1, 0xa6, 0xbd, 0x16, 0xd6, 0x69, 0x3d,
  0xc8, 0x82, 0xe7, 0xbd, 0x07, 0x97, 0xf7, 0x3d, 0xb7, 0x11, 0xad, 0x3c,
  0x1b, 0x7b, 0x0c, 0x3e, 0xb7, 0x2e, 0x4e, 0xbe, 0xc5, 0xa7, 0x98, 0x3d,
  0xe6, 0x3c, 0x81, 0x3e, 0x07, 0xae, 0x7d, 0xbe, 0x3b, 0xe4, 0xae, 0xbd,
  0x8e, 0xbf, 0xa8, 0x3e, 0x62, 0x82, 0x24, 0xbe, 0x1a, 0xaa, 0x0c, 0x3c,
  0xc6, 0xe8, 0x2b, 0x3f, 0xdd, 0x23, 0xc0, 0x3d, 0xb9, 0x36, 0xbb, 0xbd,
  0x5a, 0x2a, 0x89, 0x3d, 0x73, 0x8e, 0x90, 0xbd, 0x11, 0x4a, 0x3d, 0x3d,
  0x5d, 0x98, 0xba, 0x3d, 0xdb, 0x14, 0xe6, 0xbb, 0x7c, 0x74, 0x4f, 0xbd,
  0x98, 0x9d, 0x82, 0x3c, 0x50, 0x39, 0xb0, 0x3e, 0xfb, 0x3d, 0xed, 0xbd,
  0xcc, 0x0f, 0x9e, 0xbe, 0x98, 0x92, 0xcb, 0x3e, 0x9b, 0x49, 0xb5, 0xbc,
  0xed, 0x25, 0xd2, 0xbc, 0x49, 0x65, 0x06, 0x3f, 0xc7, 0xdf, 0xe3, 0xbc,
  0xb2, 0xd5, 0xd6, 0x3d, 0x01, 0x00, 0xe5, 0x3d, 0xc5, 0x2a, 0x83, 0xbd,
  0x38, 0x7f, 0x3f, 0x3e, 0xcf, 0x89, 0x1a, 0x3d, 0xbc, 0x24, 0xc1, 0x3e,
  0xce, 0x7b, 0xe7, 0xbe, 0x9e, 0x48, 0x2a, 0xbd, 0x9e, 0xa1, 0x99, 0x3e,
  0xe4, 0xf8, 0x9d, 0xbe, 0x3b, 0x83, 0x35, 0xbd, 0x88, 0x85, 0x6a, 0x3e,
  0x43, 0x9f, 0x1f, 0xbd, 0x1d, 0xae, 0x3d, 0xbe, 0x57, 0xe3, 0xf8, 0x3e,
  0x86, 0x72, 0xec, 0x3d, 0x01, 0xe7, 0x8b, 0x3d, 0x5f, 0x22, 0x52, 0x3d,
  0x80, 0x48, 0xba, 0xbd, 0x2c, 0xe6, 0xe0, 0x3b, 0xe2, 0x0e, 0x92, 0x3e,
  0x28, 0x8c, 0x68, 0x3e, 0x01, 0xf0, 0x68, 0xbe, 0x35, 0xf5, 0x0d, 0x3e,
  0xe5, 0x34, 0x00, 0x3f, 0xf3, 0x62, 0xc7, 0xbb, 0x14, 0xb8, 0x85, 0xbd,
  0x80, 0x45, 0x4c, 0x3d, 0xeb, 0x5e, 0x5d, 0xbe, 0x46, 0x9f, 0x71, 0x3e,
  0x0b, 0x75, 0x71, 0x3e, 0xf3, 0x64, 0xaa, 0xbd, 0xf8, 0x31, 0x3d, 0x3e,
  0x58, 0x1d, 0x3f, 0x3d, 0xf1, 0x04, 0xd5, 0xbd, 0x74, 0x0f, 0xc7, 0x3e,
  0x58, 0x3f, 0x84, 0x3e, 0x7d, 0x8d, 0xc9, 0xbd, 0x51, 0x66, 0xa0, 0xbd,
  0xf9, 0xca, 0x56, 0x3e, 0x5f, 0x3a, 0x89, 0x3d, 0xc9, 0x43, 0xc7, 0xbd,
  0x41, 0x4d, 0x70, 0xbe, 0x26, 0xb6, 0xf4, 0x3e, 0xff, 0x46, 0x96, 0xbe,
  0xfe, 0xca, 0x22, 0xbe, 0x1d, 0xb7, 0x38, 0x3f, 0x24, 0x26, 0x20, 0xbe,
  0xe2, 0x66, 0xe5, 0xbd, 0xe1, 0x45, 0xc7, 0xbd, 0x00, 0x00, 0x3e, 0xbe,
  0x78, 0x9d, 0xe0, 0xbc, 0x08, 0xd0, 0x4f, 0xbe, 0x12, 0x9b, 0x0a, 0xbe,
  0xa9, 0xda, 0x07, 0x3e, 0xe8, 0x1e, 0x7d, 0xbe, 0x0d, 0xb1, 0x5a, 0x3e,
  0x67, 0xb8, 0x21, 0xbd, 0x68, 0xb3, 0xfd, 0xbd, 0x7b, 0x6e, 0x0e, 0x3f,
  0xfc, 0x40, 0xfd, 0xbc, 0x2b, 0xae, 0x30, 0x3e, 0xef, 0x2f, 0x1b, 0x3f,
  0x25, 0x84, 0x81, 0xbd, 0x25, 0xa2, 0x1a, 0xbe, 0x7f, 0x19, 0xc4, 0xbd,
  0xe4, 0x05, 0x23, 0xbe, 0x93, 0x14, 0xde, 0xbd, 0xfe, 0x86, 0x8f, 0x3d,
  0x70, 0x7e, 0xcd, 0x3e, 0xb3, 0x7a, 0xe4, 0xbd, 0xce, 0x66, 0x4a, 0x3e,
  0x4a, 0xeb, 0xf8, 0x3e, 0xc0, 0x2d, 0x30, 0xbe, 0x5b, 0xe6, 0xa4, 0x3c,
  0xc6, 0xa5, 0xd4, 0x3e, 0x07, 0xa8, 0x34, 0xbe, 0x20, 0x09, 0x35, 0xbd,
  0x00, 0x31, 0x58, 0x3f, 0x2c, 0x49, 0x49, 0xbe, 0x14, 0x95, 0x3c, 0x3d,
  0x09, 0x74, 0x64, 0xbe, 0x5c, 0x86, 0x8d, 0xbe, 0xec, 0x19, 0x83, 0xbd,
  0xe0, 0x75, 0xc6, 0x3c, 0xb0, 0x52, 0x33, 0x3d, 0xdd, 0x8d, 0x22, 0x3e,
  0xd4, 0xf4, 0xa4, 0x3e, 0xa9, 0x39, 0x08, 0x3f, 0x98, 0xa4, 0xd8, 0x3d,
  0x60, 0x94, 0x79, 0xbe, 0x8f, 0x28, 0x38, 0x3f, 0x81, 0x7d, 0x3b, 0xbe,
  0x1a, 0x1d, 0x1b, 0xbd, 0xa6, 0x57, 0x1f, 0x3f, 0x5d, 0x4e, 0xa5, 0xbc,
  0x49, 0xd7, 0x43, 0xbe, 0xb7, 0x4a, 0x3d, 0xbe, 0xe8, 0xf0, 0x44, 0xbe,
  0xae, 0x33, 0x4b, 0xbc, 0xbb, 0x3a, 0x15, 0x3e, 0xd4, 0x14, 0xe3, 0x3e,
  0x22, 0x3a, 0xbd, 0x3d, 0x7f, 0xe9, 0xd7, 0x3e, 0x68, 0x17, 0xca, 0x3e,
  0x05, 0xda, 0x8a, 0xbe, 0x8b, 0x3a, 0xff, 0x3c, 0x10, 0x26, 0xe7, 0x3e,
  0xcd, 0x3d, 0x25, 0x3e, 0x11, 0x87, 0x8a, 0xbc, 0xf3, 0xee, 0x34, 0x3f,
  0x89, 0x29, 0x0e, 0xbe, 0x52, 0x7c, 0x63, 0xbe, 0x17, 0xc8, 0x42, 0xbd,
  0xd9, 0x55, 0xa0, 0xbe, 0x8c, 0xdf, 0x93, 0x3e, 0xcc, 0xd1, 0x59, 0xbe,
  0x55, 0xa3, 0xbb, 0x3e, 0x46, 0xa2, 0xc8, 0xbc, 0x90, 0x84, 0x20, 0x3e,
  0xd5, 0xde, 0x63, 0x3f, 0xbf, 0x79, 0x8c, 0xbe, 0x40, 0x24, 0x79, 0xbe,
  0x22, 0xba, 0x0e, 0x3f, 0xa2, 0xa7, 0x57, 0xbe, 0x57, 0x1c, 0x93, 0x3d,
  0x81, 0xce, 0x70, 0x3f, 0x70, 0x0c, 0x95, 0xbb, 0x1c, 0xef, 0x9d, 0xbd,
  0x0f, 0xdf, 0x4b, 0xbe, 0x67, 0x7c, 0x2a, 0xbe, 0x56, 0x0f, 0x3e, 0x3e,
  0x9f, 0x31, 0x88, 0xbe, 0xf7, 0x8d, 0xaa, 0x3e, 0x1a, 0x77, 0x1b, 0x3e,
  0xbf, 0x12, 0x06, 0x3f, 0xa9, 0x3d, 0x08, 0x3f, 0x1d, 0x48, 0x9b, 0xbe,
  0x72, 0x5e, 0x8b, 0xbe, 0x16, 0xea, 0xce, 0x3e, 0xc6, 0x70, 0x31, 0xbe,
  0x36, 0xe3, 0xde, 0xbc, 0xbf, 0x1f, 0x21, 0x3f, 0x6f, 0x5e, 0x47, 0xbe,
  0xea, 0xbe, 0xb8, 0xbc, 0x11, 0x50, 0x12, 0xbe, 0x68, 0x83, 0x9b, 0xbe,
  0x31, 0x08, 0x78, 0xbe, 0x26, 0xa4, 0xea, 0xbd, 0xac, 0x54, 0x8a, 0x3e,
  0xfe, 0x48, 0x22, 0xbe, 0x35, 0x2a, 0x9f, 0x3e, 0x84, 0xb3, 0xc5, 0x3e,
  0xa0, 0x1a, 0x00, 0xbd, 0x09, 0x63, 0x20, 0xbe, 0x9e, 0x22, 0x29, 0xbe,
  0x89, 0x7d, 0xac, 0xbe, 0xdb, 0x5b, 0x82, 0x3d, 0xb9, 0xf9, 0x6a, 0x3c,
  0xdd, 0x2b, 0x91, 0xbd, 0x50, 0x38, 0xfe, 0xbd, 0x3d, 0x4a, 0x4f, 0x3e,
  0x6a, 0xcd, 0xf7, 0x3c, 0x74, 0x52, 0xa6, 0x3d, 0xab, 0xeb, 0x0e, 0xbe,
  0xf5, 0x20, 0xf5, 0xbe, 0xcc, 0xda, 0xa4, 0x3e, 0x03, 0x94, 0x0e, 0x3e,
  0x8c, 0xff, 0x1c, 0xbf, 0x91, 0xa9, 0x96, 0xbe, 0x98, 0xab, 0xee, 0xbd,
  0xad, 0x5d, 0x02, 0x3e, 0x5b, 0x54, 0x18, 0x3e, 0x01, 0xfa, 0xcb, 0x3d,
  0xac, 0x80, 0x9a, 0xbe, 0x66, 0x5c, 0x55, 0x3c, 0x8d, 0x00, 0x04, 0x3e,
  0xef, 0x16, 0x73, 0xbc, 0x15, 0x32, 0x6d, 0x3c, 0x3e, 0x1f, 0xa3, 0xbd,
  0x61, 0x54, 0x11, 0xbe, 0x80, 0x69, 0x2b, 0x3e, 0xbf, 0x91, 0xad, 0x3a,
  0x12, 0xb0, 0x99, 0x3d, 0xbb, 0x1a, 0xf5, 0x3d, 0xf0, 0x43, 0xb5, 0xbe,
  0x0e, 0xa6, 0xe2, 0x3c, 0xed, 0xaf, 0x0b, 0x3e, 0x33, 0x09, 0xd3, 0xbb,
  0xb4, 0x0b, 0xd2, 0x3e, 0xc4, 0x36, 0x85, 0xbe, 0x83, 0xbf, 0xbb, 0xbd,
  0x97, 0x6a, 0x1b, 0xbe, 0xc9, 0x95, 0x90, 0xbd, 0x3d, 0x10, 0x18, 0x3d,
  0x9a, 0x75, 0xaa, 0x3d, 0x70, 0xcc, 0x98, 0x3e, 0x3c, 0xfc, 0xb8, 0x3e,
  0xec, 0x8c, 0xe8, 0x3d, 0xdf, 0x43, 0x4f, 0x3d, 0xe4, 0x47, 0x73, 0x3e,
  0x4a, 0x99, 0xe2, 0xbe, 0x50, 0xb5, 0x15, 0x3e, 0x30, 0xf8, 0x91, 0x3e,
  0xc9, 0x3e, 0x82, 0xbd, 0xde, 0xfa, 0x6b, 0x3e, 0x0c, 0x7d, 0x78, 0xbe,
  0x59, 0x32, 0xf3, 0xbc, 0xc2, 0x53, 0x55, 0xbe, 0x45, 0x89, 0xbd, 0xbd,
  0x5d, 0xea, 0x13, 0x3d, 0x0e, 0x5d, 0x7c, 0x3d, 0x0b, 0x70, 0x53, 0x3d,
  0x17, 0x25, 0x7a, 0xbd, 0xba, 0xba, 0x98, 0x3e, 0x6e, 0x28, 0xc4, 0x3d,
  0x91, 0x70, 0x83, 0x3e, 0xa6, 0x80, 0x97, 0xbe, 0x8f, 0x1b, 0x2c, 0xbe,
  0xe4, 0x60, 0x70, 0x3e, 0x64, 0x7b, 0x24, 0xbe, 0xc0, 0xcc, 0x06, 0x3e,
  0x0b, 0x40, 0xa3, 0xbe, 0x60, 0x12, 0xdc, 0xbd, 0x2e, 0xd8, 0x92, 0xbe,
  0xf4, 0xc3, 0x03, 0xbd, 0x27, 0x8c, 0xd1, 0x3c, 0x48, 0x7b, 0x22, 0x3d,
  0x24, 0xbe, 0x51, 0xbe, 0x0a, 0x62, 0x24, 0xbe, 0xa6, 0x1d, 0x6c, 0x3d,
  0x1a, 0x7c, 0x1d, 0x3e, 0xd8, 0x7b, 0xac, 0xbd, 0xd1, 0x46, 0xb7, 0xbe,
  0x1e, 0xdf, 0x4a, 0xbe, 0x37, 0x59, 0xd5, 0x3e, 0x99, 0xb7, 0xe7, 0xbd,
  0xff, 0xb5, 0x25, 0xbe, 0xec, 0x67, 0x77, 0xbe, 0x8b, 0xde, 0x7e, 0xbd,
  0x27, 0x73, 0xf0, 0xbe, 0x15, 0x83, 0x3e, 0x3c, 0xa9, 0x5c, 0x39, 0x3d,
  0xc0, 0x4b, 0xfb, 0x3d, 0x87, 0x4c, 0xae, 0xbe, 0xe6, 0xf1, 0x08, 0x3c,
  0xa8, 0x7f, 0x35, 0x3e, 0xa5, 0x49, 0x2b, 0x3c, 0x08, 0xe5, 0x37, 0x3d,
  0x0a, 0x6c, 0xd3, 0xbe, 0x2b, 0xfb, 0x53, 0xbe, 0xe3, 0x52, 0xce, 0xbd,
  0xc3, 0x3c, 0xf1, 0xbd, 0x45, 0x99, 0x14, 0xbd, 0xc8, 0x0a, 0x32, 0x3e,
  0x98, 0xe4, 0x5c, 0xbd, 0x3e, 0x80, 0xb2, 0xbe, 0x85, 0x55, 0x48, 0xbb,
  0xfe, 0x48, 0x46, 0x3d, 0x50, 0x44, 0xf1, 0xbc, 0xe3, 0x09, 0xaa, 0xbe,
  0x86, 0x63, 0x3a, 0x3e, 0xab, 0xa4, 0x5a, 0x3e, 0x00, 0x2a, 0x89, 0xbd,
  0xbe, 0x68, 0xa6, 0x3d, 0x99, 0x05, 0xa4, 0xbe, 0xcf, 0x00, 0x9c, 0x3d,
  0xc8, 0x6d, 0x95, 0x3e, 0x05, 0x3e, 0xba, 0xbd, 0xfd, 0x79, 0x7d, 0x3d,
  0x9c, 0xf1, 0x71, 0x3f, 0x5d, 0x39, 0x94, 0xbd, 0x6b, 0x86, 0xf2, 0x3c,
  0x08, 0x47, 0x15, 0xbd, 0xe0, 0xa0, 0x96, 0xbd, 0xe2, 0x23, 0x1f, 0xbd,
  0xef, 0x5e, 0x0a, 0xbe, 0x6c, 0xc0, 0xc2, 0xbd, 0xcb, 0x57, 0x4f, 0xbe,
  0x33, 0x6f, 0x79, 0xbe, 0x96, 0x0c, 0x85, 0x3e, 0xa3, 0xdc, 0x3b, 0xbe,
  0x6c, 0xbf, 0x55, 0xbe, 0xfa, 0x59, 0xa6, 0x3e, 0x5b, 0x0e, 0x27, 0x3d,
  0x2a, 0x27, 0x3a, 0xbd, 0xc8, 0xb3, 0x49, 0x3f, 0xcf, 0x48, 0x47, 0xbe,
  0xe9, 0xc5, 0x79, 0x3d, 0x77, 0x6a, 0xef, 0xbd, 0x38, 0xb3, 0xa8, 0xbe,
  0xa7, 0xd9, 0xd6, 0xbd, 0xea, 0x0d, 0x52, 0xbe, 0x74, 0x49, 0x5a, 0x3e,
  0xfb, 0x69, 0x8d, 0xbd, 0x19, 0x26, 0x9e, 0x3d, 0xbd, 0x05, 0x00, 0x3f,
  0x77, 0xad, 0x52, 0xbe, 0x14, 0x9d, 0xba, 0x3d, 0x42, 0x84, 0xa4, 0x3e,
  0x9d, 0x38, 0x7d, 0x3d, 0x24, 0xda, 0x7c, 0xbc, 0x3e, 0x2e, 0x43, 0x3f,
  0x89, 0x6d, 0x24, 0xbe, 0x3a, 0xe9, 0xe7, 0xbd, 0x1b, 0x6b, 0xbf, 0x3c,
  0x0a, 0x7f, 0xac, 0xbe, 0xdc, 0x44, 0x44, 0xbe, 0x72, 0x6b, 0xca, 0xbd,
  0x72, 0x93, 0x1f, 0x3e, 0x7b, 0xeb, 0x75, 0x3c, 0xf1, 0x11, 0x5c, 0x3d,
  0xc5, 0x49, 0x6f, 0x3e, 0xee, 0x64, 0xa7, 0x3d, 0x14, 0x47, 0xfd, 0xbd,
  0x85, 0x5c, 0x88, 0x3e, 0xd1, 0x3f, 0x6a, 0xbe, 0x46, 0xf5, 0x20, 0xbe,
  0xec, 0xe9, 0x31, 0x3f, 0x8a, 0x77, 0x37, 0xbe, 0x34, 0x96, 0x2f, 0xbc,
  0xc7, 0x5f, 0x35, 0x3d, 0xd5, 0x1b, 0x3e, 0xbe, 0x6f, 0xba, 0x34, 0xbe,
  0x7e, 0x68, 0xe4, 0xba, 0x12, 0x98, 0x20, 0x3e, 0xce, 0xdc, 0x2c, 0x3e,
  0x18, 0xd8, 0x94, 0x3e, 0x45, 0x5b, 0x1e, 0x3f, 0x08, 0xb2, 0x47, 0xbe,
  0xf1, 0x22, 0x45, 0xbe, 0x93, 0x46, 0xe8, 0x3e, 0x1d, 0x8c, 0xee, 0xbd,
  0x64, 0xb2, 0x59, 0x3d, 0x75, 0x8e, 0x3c, 0x3f, 0x0d, 0xf1, 0x99, 0xbe,
  0x0b, 0xc5, 0xaa, 0xbd, 0x32, 0x27, 0x94, 0xbe, 0x4b, 0xc8, 0x09, 0xbe,
  0x88, 0xb3, 0xcb, 0x3d, 0x71, 0x8b, 0xd3, 0x3d, 0xa3, 0x78, 0x4c, 0x3e,
  0xc9, 0x7f, 0x70, 0x3d, 0xf2, 0xef, 0x2f, 0x3e, 0xfa, 0xaa, 0xb6, 0x3e,
  0x3d, 0x13, 0x33, 0xbd, 0xfa, 0x37, 0x88, 0xbe, 0xcb, 0x67, 0xe4, 0x3e,
  0x01, 0xbe, 0x54, 0xbe, 0x75, 0xb8, 0x88, 0xbe, 0xf4, 0xbf, 0x3e, 0x3f,
  0xf0, 0x38, 0xeb, 0xbd, 0xc6, 0x50, 0xc6, 0x3c, 0xa3, 0x27, 0x9c, 0xbd,
  0x65, 0x41, 0x72, 0xbd, 0x82, 0xc0, 0x40, 0x3e, 0xe2, 0x10, 0x3a, 0x3e,
  0x34, 0xbf, 0x05, 0x3e, 0xc1, 0xeb, 0xd6, 0x3d, 0x03, 0xb2, 0x5d, 0x3e,
  0x3d, 0xf4, 0x81, 0x3e, 0xe3, 0x14, 0x6e, 0xbe, 0xea, 0x9c, 0x68, 0xbe,
  0x93, 0xd0, 0x91, 0x3e, 0xa4, 0x4f, 0xfa, 0x3c, 0xfc, 0x1e, 0xde, 0xbc,
  0xf3, 0xc3, 0x13, 0x3f, 0x31, 0x3e, 0x55, 0xbd, 0x3e, 0x48, 0x59, 0xbe,
  0xc2, 0x52, 0x49, 0xbe, 0x39, 0xbb, 0x85, 0xbe, 0x04, 0xda, 0xaf, 0xbc,
  0xf9, 0x15, 0xb6, 0x3d, 0x4f, 0x6f, 0x9c, 0x3e, 0x51, 0x4a, 0xd3, 0xbd,
  0x31, 0x41, 0x8d, 0xbb, 0xe9, 0x51, 0xd8, 0x3e, 0x89, 0x72, 0x13, 0xbc,
  0xb6, 0xf0, 0x65, 0xbe, 0x04, 0x0b, 0x3c, 0x3e, 0x84, 0x24, 0x21, 0xbe,
  0x22, 0xe9, 0xac, 0xbd, 0xe4, 0x7a, 0x50, 0x3f, 0x0d, 0xdb, 0x3d, 0xbb,
  0x30, 0xf5, 0x97, 0xbd, 0xdc, 0x08, 0xb0, 0xbb, 0x6c, 0x32, 0x72, 0xbe,
  0x74, 0xd1, 0x90, 0x3d, 0xee, 0xf6, 0x9c, 0xbd, 0x13, 0x51, 0x3a, 0x3e,
  0x38, 0x0c, 0x91, 0x3c, 0x98, 0x7f, 0x97, 0xbe, 0x77, 0x34, 0x91, 0x3e,
  0xbb, 0x2e, 0x4a, 0x3c, 0x56, 0x42, 0x7b, 0xbe, 0x0e, 0xdb, 0xdb, 0x3e,
  0xe3, 0x6c, 0x7b, 0xbe, 0xb3, 0xbf, 0x0b, 0xbe, 0xd4, 0x00, 0x57, 0x3f,
  0xf3, 0x9f, 0x1f, 0xbe, 0x19, 0xfd, 0xd0, 0x3d, 0x11, 0x11, 0xf7, 0xbd,
  0x34, 0x8f, 0xc1, 0xbe, 0x9e, 0x0f, 0x29, 0x3d, 0x79, 0xbc, 0x9f, 0xbd,
  0x4f, 0xde, 0x90, 0x3e, 0xb2, 0x93, 0x79, 0xbd, 0xba, 0xda, 0xb8, 0xbd,
  0x57, 0x4a, 0xd0, 0x3e, 0x45, 0x68, 0xf5, 0xbd, 0x5a, 0x5a, 0x86, 0xbe,
  0x0e, 0x3f, 0x02, 0x3f, 0x7c, 0xc9, 0xc0, 0x3c, 0xbd, 0x97, 0x82, 0xbe,
  0x12, 0x9c, 0x48, 0x3f, 0xb4, 0x11, 0x96, 0xbe, 0x18, 0x8b, 0x26, 0xbe,
  0x85, 0x3f, 0x71, 0xbe, 0x21, 0xe9, 0xea, 0xbd, 0x1d, 0x23, 0x2e, 0x3e,
  0x09, 0xb1, 0x48, 0x3e, 0xb5, 0x09, 0x0b, 0x3f, 0x60, 0xac, 0x4a, 0x3c,
  0x0b, 0x87, 0x99, 0x3e, 0xf2, 0x8f, 0xb4, 0x3e, 0xab, 0x7e, 0x9e, 0xbd,
  0x14, 0xf3, 0x5e, 0xbe, 0x8b, 0xf2, 0xd4, 0x3e, 0xcc, 0x9b, 0x51, 0xbe,
  0x0b, 0xf4, 0xf1, 0xbd, 0x19, 0xe6, 0x00, 0x3f, 0xde, 0x60, 0x7a, 0xbe,
  0xba, 0xb6, 0x52, 0xbe, 0x8a, 0xdd, 0xb1, 0xbe, 0x2b, 0x06, 0xa3, 0xbd,
  0x6e, 0x14, 0xc8, 0x3d, 0x0e, 0xc0, 0xe3, 0x3d, 0xa8, 0xf2, 0xa6, 0x3e,
  0xdc, 0x88, 0x93, 0x3d, 0x7c, 0xf2, 0x55, 0x3d, 0x1f, 0xf3, 0x02, 0x3f,
  0x8a, 0x86, 0xf8, 0xbc, 0x95, 0xf1, 0xcf, 0x3c, 0x36, 0x1f, 0x36, 0x3f,
  0xf7, 0x5b, 0x66, 0xbd, 0xa0, 0x39, 0x7f, 0xbd, 0xcc, 0x30, 0x15, 0x3f,
  0xb5, 0xff, 0x95, 0xbe, 0x91, 0xba, 0xc1, 0x3c, 0x60, 0x55, 0xdd, 0xbd,
  0x7d, 0xc5, 0x9d, 0xbe, 0x35, 0xaf, 0x81, 0xbd, 0x9a, 0xba, 0xea, 0x3d,
  0x86, 0xe8, 0x8b, 0x3e, 0xb5, 0x8d, 0x35, 0xbd, 0x69, 0xd5, 0x49, 0x3e,
  0x87, 0x56, 0x20, 0x3f, 0x9e, 0x0b, 0xa9, 0xbe, 0x00, 0xff, 0x4a, 0xbe,
  0x68, 0x13, 0x1f, 0x3f, 0x1d, 0x41, 0x28, 0xbd, 0x7a, 0x04, 0x93, 0xbd,
  0xf0, 0xab, 0x56, 0x3f, 0x4e, 0x38, 0x4e, 0xbd, 0x9e, 0xea, 0x4b, 0xbd,
  0xd6, 0x38, 0xaa, 0xbd, 0xb4, 0x93, 0x10, 0xbe, 0xe3, 0x93, 0xdd, 0xbc,
  0x58, 0x85, 0x13, 0x3e, 0x14, 0x5d, 0xab, 0x3e, 0x22, 0x53, 0x5a, 0x3d,
  0xfa, 0x2e, 0x03, 0x3e, 0x35, 0x4e, 0x14, 0x3f, 0x56, 0xcb, 0x47, 0xbd,
  0x38, 0xf0, 0x1d, 0x39, 0x02, 0x7b, 0x1a, 0x3e, 0xb2, 0xe3, 0xbd, 0x3d,
  0xc9, 0x50, 0x7b, 0xbc, 0xa8, 0x3b, 0xf7, 0x3e, 0x89, 0x2c, 0x16, 0xbe,
  0xaf, 0xb8, 0x84, 0x3e, 0x88, 0x91, 0x03, 0xbe, 0x7d, 0x26, 0x0d, 0xbe,
  0xdc, 0x72, 0xa9, 0x3d, 0xe5, 0x28, 0xeb, 0xbd, 0x77, 0x0a, 0xed, 0x3e,
  0xe0, 0x12, 0x5b, 0xbe, 0xce, 0x3d, 0x4f, 0x3d, 0x21, 0x2d, 0x42, 0x3f,
  0xa1, 0xe5, 0xdd, 0xbc, 0x22, 0x2d, 0x69, 0xbd, 0x4d, 0x33, 0x9b, 0xbc,
  0x06, 0x26, 0x68, 0xbe, 0x71, 0x98, 0x94, 0xbe, 0x2c, 0x4d, 0xea, 0x3e,
  0x47, 0x9a, 0x8b, 0xbb, 0xb0, 0x63, 0x5c, 0x3e, 0xb9, 0x94, 0x42, 0xbe,
  0x1f, 0x03, 0xc2, 0xbd, 0x3d, 0xf7, 0x77, 0xbd, 0xcd, 0x78, 0x70, 0x3e,
  0x5a, 0x08, 0xb0, 0x3e, 0xb7, 0x24, 0x69, 0xbb, 0x97, 0x0c, 0x92, 0xbd,
  0xfc, 0x62, 0x73, 0x3f, 0x84, 0x0e, 0x8d, 0xbe, 0x6e, 0xad, 0x3e, 0xbe,
  0xef, 0xa0, 0xbd, 0x3e, 0x59, 0x5b, 0x93, 0xbd, 0xb4, 0x84, 0x9d, 0xbe,
  0xa8, 0x23, 0x5d, 0x3f, 0x11, 0x04, 0x47, 0x3d, 0xcd, 0x69, 0x83, 0xbd,
  0xa8, 0xbe, 0x4a, 0xbd, 0x4e, 0x1d, 0x93, 0xbd, 0xb2, 0x7c, 0xb9, 0x3e,
  0x5b, 0xbb, 0xaa, 0x3d, 0x02, 0x2d, 0xf5, 0xbd, 0x2c, 0x54, 0x07, 0xbd,
  0x70, 0x45, 0xc2, 0x3c, 0x50, 0x15, 0xdd, 0xbb, 0xeb, 0x92, 0x8b, 0xbe,
  0xfb, 0xd4, 0x11, 0xbd, 0x77, 0xa1, 0xc8, 0x3e, 0xd7, 0xc6, 0x9b, 0xbd,
  0x9a, 0xc0, 0x23, 0xbe, 0xec, 0xae, 0xe9, 0x3e, 0x9f, 0xd1, 0x5c, 0x3d,
  0xf8, 0x6a, 0xc5, 0x3c, 0x74, 0x05, 0xb7, 0xba, 0x9e, 0x4c, 0x7f, 0xbd,
  0xc7, 0xbf, 0xb8, 0x3d, 0xdf, 0x56, 0x0f, 0xbd, 0x4b, 0x0e, 0xf2, 0xbd,
  0x2e, 0x4e, 0x37, 0xbe, 0x75, 0x39, 0x92, 0xbd, 0x53, 0x38, 0xa9, 0x3d,
  0xc4, 0x6a, 0xf5, 0xbd, 0xec, 0xa4, 0x88, 0xbd, 0xdf, 0xeb, 0x8d, 0x3e,
  0xa5, 0xba, 0x6d, 0xbc, 0x27, 0x18, 0xb9, 0x3b, 0xb2, 0xdf, 0xf7, 0x3e,
  0xba, 0xdd, 0x90, 0x3c, 0xa2, 0x63, 0x19, 0x3e, 0x53, 0x89, 0x11, 0xbd,
  0xc7, 0x6e, 0xa7, 0xbd, 0x65, 0x14, 0x20, 0x3e, 0x4c, 0xe3, 0x4e, 0xbd,
  0xc7, 0x51, 0x75, 0xbe, 0x9c, 0x79, 0x26, 0xbe, 0x77, 0xc0, 0x82, 0xbd,
  0xfc, 0x85, 0xe4, 0x3e, 0x8c, 0x50, 0x48, 0xbe, 0x5d, 0xb2, 0xd4, 0xbd,
  0x15, 0x2c, 0x07, 0x3f, 0xd2, 0x69, 0xb6, 0x3d, 0xcc, 0x7f, 0x0c, 0x3e,
  0x21, 0xe1, 0xe6, 0x3e, 0xc3, 0xc8, 0x0e, 0x3d, 0xd6, 0xc6, 0xc3, 0x3d,
  0xc0, 0x1f, 0x2d, 0x3d, 0x32, 0xa3, 0xce, 0xbc, 0x2c, 0x60, 0x35, 0x3d,
  0xaf, 0x70, 0x28, 0x3e, 0x1d, 0xb7, 0xa3, 0xbd, 0x55, 0x65, 0x2b, 0xbe,
  0xa9, 0xf7, 0xe7, 0xbd, 0xe3, 0xb8, 0x15, 0x3e, 0xa2, 0xd7, 0x99, 0xbe,
  0xe6, 0x73, 0x85, 0x3d, 0x18, 0x85, 0x90, 0x3e, 0xe9, 0xb6, 0xb3, 0x3c,
  0x4d, 0xcb, 0x71, 0x3a, 0xd9, 0xee, 0x08, 0x3f, 0x08, 0x25, 0x94, 0x3d,
  0x33, 0x32, 0x28, 0x3e, 0x8d, 0x56, 0x2e, 0xbd, 0x62, 0x8d, 0x05, 0xbd,
  0x54, 0xc1, 0xbb, 0xbb, 0x50, 0x31, 0xc5, 0x3e, 0x55, 0x02, 0x66, 0xbd,
  0x00, 0x0e, 0xa2, 0xbe, 0x37, 0x5d, 0xb5, 0xbd, 0xc3, 0x40, 0xc9, 0x3e,
  0xf5, 0xba, 0x5c, 0xbe, 0x36, 0x60, 0x5d, 0xbd, 0x32, 0xae, 0xc0, 0x3d,
  0x3e, 0xa8, 0xc4, 0xbd, 0xaf, 0xca, 0xb1, 0x3d, 0x59, 0x00, 0xd3, 0xbc,
  0xc5, 0xaa, 0x77, 0xbc, 0x4b, 0xa0, 0x24, 0x3d, 0xd8, 0xd4, 0x4f, 0xbd,
  0xf9, 0xbf, 0x53, 0xbd, 0xab, 0xb0, 0x3f, 0x3e, 0xe1, 0xc6, 0xcb, 0x3e,
  0xbd, 0x47, 0x25, 0x3e, 0x49, 0x79, 0x83, 0xbe, 0x9b, 0xed, 0x7e, 0x3e,
  0x82, 0xc5, 0xa2, 0x3d, 0x38, 0x80, 0xec, 0xbd, 0x18, 0xf8, 0xad, 0xbd,
  0xb5, 0x12, 0x42, 0xbe, 0xd3, 0x20, 0xa0, 0xbc, 0x4d, 0xb8, 0x10, 0xbd,
  0x62, 0xc0, 0x1f, 0xbe, 0xb4, 0xf4, 0xc9, 0x3d, 0x02, 0xbd, 0x51, 0xbd,
  0x6a, 0x0c, 0x07, 0xbe, 0xdc, 0x40, 0x4a, 0xbe, 0x07, 0xc0, 0x10, 0xbe,
  0xb7, 0x65, 0x12, 0x3d, 0xd4, 0x28, 0x68, 0xbe, 0x0d, 0x93, 0x91, 0x3d,
  0x12, 0x23, 0x04, 0xbb, 0xbf, 0x83, 0xa6, 0xbd, 0x0d, 0xa3, 0x2a, 0xbd,
  0xd5, 0xe2, 0xcb, 0xbd, 0x2d, 0x7c, 0x55, 0xbe, 0xe9, 0x94, 0x6a, 0x3e,
  0x4c, 0x99, 0x01, 0x3e, 0xd9, 0x9d, 0x88, 0x3b, 0xc0, 0xef, 0xc7, 0x3d,
  0x0b, 0x00, 0x1d, 0xbe, 0xba, 0xe7, 0x16, 0xbe, 0x04, 0x79, 0xa8, 0xbe,
  0x75, 0x40, 0x7b, 0x3d, 0x1c, 0xd7, 0xc6, 0xbd, 0x4a, 0x00, 0xd8, 0x3d,
  0x38, 0xf7, 0x50, 0xbe, 0xfb, 0x31, 0x37, 0x3d, 0x3d, 0x81, 0xc4, 0xbc,
  0xca, 0x76, 0xfb, 0xbd, 0x51, 0x04, 0x14, 0xbe, 0x2d, 0x5a, 0x19, 0x3e,
  0xa0, 0xe1, 0x7a, 0xbb, 0xe6, 0x91, 0xfa, 0x3d, 0x7b, 0x14, 0x28, 0xbe,
  0x92, 0x67, 0x97, 0x3a, 0x56, 0xc3, 0x09, 0x3e, 0xf4, 0x3f, 0x3c, 0xbe,
  0xbc, 0xf1, 0x94, 0xbe, 0x8f, 0xbc, 0xeb, 0xbd, 0x52, 0x8c, 0xef, 0xbd,
  0x77, 0x08, 0xb6, 0xbd, 0xac, 0x6c, 0xef, 0xbd, 0x24, 0xad, 0xd2, 0x3d,
  0x9b, 0x5c, 0x0b, 0x3e, 0xc7, 0x8d, 0xb4, 0x3b, 0x49, 0x60, 0x41, 0xbe,
  0x3d, 0x22, 0xb9, 0x3d, 0x4f, 0x35, 0xe9, 0xbd, 0xa1, 0x4f, 0x04, 0xbd,
  0xbe, 0x37, 0x83, 0x3d, 0x4b, 0x8b, 0x12, 0xbe, 0x8a, 0xd8, 0x87, 0x3d,
  0xa6, 0x89, 0x52, 0xbd, 0x24, 0x76, 0x17, 0xbe, 0x4c, 0xee, 0x49, 0x3d,
  0xaa, 0xd2, 0xe0, 0x3d, 0x1c, 0xb9, 0x16, 0xbe, 0xc4, 0xab, 0x06, 0xbe,
  0xde, 0xc7, 0xc1, 0x3d, 0x39, 0xfb, 0x1e, 0x3e, 0x69, 0x9c, 0x27, 0x3c,
  0xad, 0xc9, 0xbc, 0x3d, 0xe9, 0x71, 0xd0, 0xbd, 0x3b, 0x98, 0x4a, 0x3d,
  0xc4, 0x86, 0xb6, 0x3d, 0x0b, 0x4d, 0x19, 0xbe, 0x82, 0x6c, 0xcf, 0xbc,
  0x2f, 0x4b, 0x3c, 0xbe, 0xa6, 0x88, 0xd7, 0xbd, 0xe7, 0xb2, 0x92, 0xbe,
  0x74, 0xf1, 0x64, 0x3d, 0x0b, 0xeb, 0xf0, 0xbd, 0x79, 0x39, 0xcd, 0x3d,
  0x1d, 0xca, 0x91, 0x3d, 0x66, 0xe2, 0x60, 0xbe, 0xa5, 0xe9, 0x17, 0xbe,
  0x93, 0x42, 0xf1, 0xbd, 0xb8, 0x70, 0x43, 0xbe, 0x0d, 0x39, 0x63, 0xbc,
  0x2d, 0x8a, 0x35, 0x3e, 0x76, 0x5f, 0x75, 0xbe, 0xa1, 0xc6, 0x05, 0xbc,
  0x79, 0x7b, 0x59, 0xbe, 0x74, 0x86, 0x81, 0xbc, 0xf7, 0xa0, 0x43, 0xbc,
  0xd9, 0xfd, 0x72, 0xbe, 0xd4, 0xef, 0x1b, 0xbe, 0x02, 0x62, 0xb0, 0xbd,
  0x45, 0x73, 0xad, 0xbd, 0x1c, 0x83, 0x3b, 0x3e, 0xa3, 0x88, 0xec, 0xbc,
  0x2a, 0xc7, 0x10, 0x3e, 0x31, 0xd0, 0x1f, 0x3d, 0x15, 0x86, 0xce, 0xbd,
  0x55, 0x7f, 0xc5, 0xbd, 0xa7, 0xd6, 0x27, 0x3e, 0xd1, 0x6d, 0xc6, 0xbd,
  0x69, 0xc1, 0x62, 0x3d, 0xe5, 0xa5, 0x40, 0xbe, 0x89, 0x3a, 0xe9, 0xbd,
  0x0d, 0xf5, 0x51, 0xbe, 0x46, 0x83, 0x02, 0xbe, 0x5b, 0xef, 0x3b, 0xbd,
  0x9b, 0x93, 0x53, 0xbe, 0x06, 0x3f, 0x79, 0xbe, 0x0e, 0x1b, 0x66, 0x3d,
  0x80, 0x22, 0xc9, 0x3d, 0x66, 0x8f, 0xd0, 0x3d, 0x6a, 0xf7, 0x8c, 0xbe,
  0x0b, 0xbd, 0x22, 0x3c, 0x73, 0xf3, 0x1b, 0x3e, 0x0c, 0xfe, 0xc0, 0x3d,
  0x3c, 0x63, 0x62, 0xbe, 0x18, 0x08, 0x47, 0x3f, 0x54, 0xee, 0x5f, 0xbe,
  0x68, 0x72, 0x07, 0xbe, 0xaa, 0x39, 0x58, 0x3c, 0x39, 0x1b, 0x8b, 0xbe,
  0x83, 0x1c, 0x57, 0xbd, 0x11, 0x8e, 0x8d, 0xbc, 0x42, 0xa0, 0x50, 0x3b,
  0xdc, 0x69, 0x73, 0x3e, 0x51, 0x87, 0xbd, 0xbd, 0xa4, 0x9d, 0x88, 0x3d,
  0xc5, 0x84, 0xa8, 0xbe, 0xd0, 0xe2, 0x4e, 0xbe, 0x46, 0xe9, 0x00, 0x3f,
  0x61, 0x24, 0xd7, 0xbd, 0xde, 0x3b, 0x8c, 0xbd, 0xc4, 0x57, 0x52, 0x3f,
  0x22, 0x20, 0x43, 0xbe, 0x30, 0xeb, 0xbd, 0x3c, 0x02, 0x80, 0x28, 0xbe,
  0x2a, 0xe8, 0x04, 0xbe, 0x59, 0xbe, 0xdd, 0xbc, 0x5b, 0xf0, 0x0d, 0x3e,
  0x76, 0x93, 0x0a, 0x3e, 0x5d, 0x99, 0x60, 0x3e, 0xa3, 0x61, 0x5f, 0x3e,
  0x7a, 0xff, 0xe4, 0x3e, 0x91, 0x71, 0x60, 0xbe, 0xfc, 0xfd, 0xf1, 0xbd,
  0x44, 0xa3, 0x01, 0x3f, 0xf4, 0xf4, 0xf7, 0x3c, 0x3c, 0x50, 0x47, 0xbe,
  0x98, 0x3e, 0x3f, 0x3f, 0xc4, 0xaa, 0x29, 0xbe, 0x57, 0x19, 0x8b, 0x3d,
  0xaf, 0x9b, 0x17, 0xbe, 0x1e, 0xe3, 0x3e, 0xbd, 0x5d, 0x41, 0x5c, 0x3c,
  0x7d, 0x2d, 0x89, 0x3d, 0x10, 0x8b, 0x4e, 0x3e, 0xbb, 0xff, 0x13, 0xbd,
  0xf9, 0x52, 0xb8, 0x3e, 0x9e, 0x4b, 0x3b, 0x3f, 0xf4, 0xb9, 0x29, 0xbe,
  0xed, 0x04, 0xb5, 0x3c, 0xeb, 0x1e, 0x99, 0x3e, 0x19, 0xb7, 0x37, 0x3d,
  0xab, 0x7b, 0x5f, 0xbe, 0xb8, 0xf7, 0x84, 0x3f, 0xe9, 0xe0, 0x6f, 0xbe,
  0x83, 0x09, 0x07, 0x3e, 0xfb, 0xf2, 0xf3, 0xbd, 0xb9, 0xfe, 0x7b, 0xbe,
  0x03, 0xd7, 0x28, 0xbe, 0xe9, 0x1c, 0x35, 0x3c, 0xde, 0x19, 0x8d, 0x3c,
  0x12, 0x72, 0x2a, 0x3e, 0xce, 0xde, 0xbf, 0x3e, 0xe8, 0x34, 0xad, 0x3e,
  0x97, 0xf6, 0x8d, 0xbd, 0x0a, 0xa7, 0xa3, 0xbc, 0x45, 0x2d, 0xec, 0x3e,
  0xe0, 0x3f, 0xbd, 0x3d, 0x7a, 0x20, 0x3a, 0xbd, 0x02, 0x53, 0x2c, 0x3f,
  0x7d, 0x9e, 0x13, 0x3e, 0x4d, 0xe9, 0xdc, 0x3d, 0x25, 0xab, 0xc5, 0xbe,
  0xc2, 0xcd, 0x3c, 0xbe, 0x7c, 0x8a, 0x82, 0x3d, 0x72, 0x27, 0x0c, 0x3e,
  0x7a, 0xb5, 0x69, 0xbd, 0xe4, 0xc2, 0x3f, 0x3c, 0x11, 0xba, 0xfb, 0x3d,
  0x64, 0xfe, 0x5a, 0x3e, 0x52, 0x8d, 0x23, 0xbe, 0x51, 0x4f, 0xc0, 0x3b,
  0x02, 0x33, 0xf8, 0x3e, 0xde, 0xa6, 0x00, 0xbe, 0xec, 0x63, 0x01, 0x3e,
  0xb4, 0x2d, 0x84, 0x3f, 0x36, 0x0b, 0x4f, 0xbe, 0xda, 0x86, 0x64, 0x3e,
  0xf5, 0x5a, 0xab, 0xbd, 0x91, 0xc7, 0xe5, 0x3b, 0x13, 0x87, 0xc4, 0x3d,
  0x86, 0x86, 0x1e, 0x3e, 0x6e, 0x3f, 0x9b, 0x3d, 0xee, 0x24, 0x29, 0x3d,
  0x2e, 0x0d, 0x01, 0x3e, 0xd8, 0xbb, 0x3b, 0x3f, 0x22, 0x91, 0x9f, 0xbd,
  0x16, 0xf4, 0xcd, 0x37, 0xa5, 0xe1, 0xdb, 0xba, 0x82, 0xa5, 0x19, 0x3e,
  0x08, 0x3f, 0x3e, 0x3e, 0xe0, 0xa5, 0xd2, 0x3e, 0x0c, 0xbf, 0x11, 0x3d,
  0xf1, 0xc1, 0x9a, 0xbd, 0xbb, 0x58, 0x13, 0xbe, 0x50, 0x0a, 0xa7, 0xbd,
  0x9c, 0x6a, 0xed, 0x3d, 0x2c, 0xe0, 0x89, 0xbd, 0xbe, 0x3c, 0x96, 0x3b,
  0xee, 0x4a, 0x19, 0xbe, 0xd5, 0xc2, 0x62, 0x3e, 0x72, 0xf9, 0xbd, 0x3e,
  0x58, 0x70, 0xad, 0x3c, 0xd4, 0xac, 0xfa, 0xbe, 0xce, 0xb9, 0xcb, 0xbc,
  0x4c, 0x77, 0xaf, 0xbe, 0x4d, 0x6d, 0x0b, 0xbe, 0x26, 0xb2, 0xfa, 0xbd,
  0x0f, 0xb3, 0xd7, 0x3d, 0x3e, 0xc3, 0x0d, 0xbf, 0x1d, 0x06, 0x74, 0x3e,
  0x61, 0xe3, 0x77, 0x3d, 0xbc, 0x5b, 0x3a, 0x3e, 0x9b, 0x4b, 0x5a, 0xbe,
  0x0a, 0x9f, 0x3b, 0xbf, 0x12, 0xe8, 0x50, 0x3e, 0x82, 0x97, 0x0f, 0x3e,
  0xbc, 0x10, 0x31, 0xbf, 0x95, 0x1e, 0x85, 0xbe, 0x93, 0x8f, 0x4a, 0x3e,
  0x88, 0xf8, 0xcb, 0x3d, 0x70, 0xd4, 0x46, 0x3e, 0xfe, 0xd4, 0xc0, 0xbd,
  0x91, 0xff, 0xfe, 0xbe, 0x44, 0xc3, 0x29, 0xbd, 0x0f, 0x4f, 0xe1, 0xbd,
  0x30, 0x35, 0x82, 0x3c, 0x24, 0x9b, 0x66, 0x3d, 0x2a, 0x60, 0x28, 0xbd,
  0x84, 0x26, 0xb8, 0xbd, 0x80, 0xd5, 0xa2, 0x3e, 0xfe, 0x30, 0x1b, 0x3e,
  0x1b, 0xe6, 0x53, 0xbe, 0x12, 0xbe, 0x2f, 0x3e, 0x34, 0x57, 0x33, 0xbe,
  0x8c, 0x60, 0xbd, 0x3e, 0x87, 0xfc, 0x5d, 0x3e, 0xb7, 0xb6, 0xb7, 0x3e,
  0x13, 0xa9, 0xd1, 0x3d, 0x90, 0x31, 0xdf, 0xbd, 0x7c, 0x82, 0x80, 0xbc,
  0x98, 0x6e, 0xaf, 0xbe, 0xbb, 0xb5, 0x28, 0xbd, 0x3e, 0xf2, 0xae, 0x3c,
  0xdd, 0xab, 0x30, 0x3d, 0xa9, 0x7b, 0x1c, 0x3e, 0xf3, 0xfb, 0x25, 0x3f,
  0xea, 0x05, 0x89, 0xba, 0x94, 0x75, 0xd2, 0x3d, 0x76, 0xfd, 0x1f, 0x3e,
  0x95, 0x4f, 0x23, 0xbe, 0x66, 0x68, 0xbd, 0x3d, 0xa1, 0x39, 0x3f, 0x3e,
  0x06, 0x4f, 0x15, 0x3e, 0xba, 0x2c, 0xd2, 0x3d, 0xa9, 0x91, 0xaf, 0xbe,
  0x0c, 0xf2, 0xcb, 0xbd, 0x68, 0xd4, 0x78, 0xbe, 0xec, 0x0a, 0x6c, 0xbd,
  0xd8, 0x09, 0x6c, 0x3c, 0x4c, 0xe0, 0x7f, 0x3d, 0xe3, 0xeb, 0x1c, 0x3e,
  0x28, 0xde, 0xd0, 0x3e, 0x4d, 0x3a, 0x89, 0x3d, 0x2c, 0xc6, 0x25, 0xbd,
  0x92, 0x7e, 0x47, 0x3e, 0x9f, 0x53, 0xab, 0xbe, 0x2b, 0xd6, 0xda, 0x3d,
  0xb2, 0xaf, 0xa5, 0x3e, 0x70, 0x98, 0x80, 0xbe, 0xb4, 0x51, 0x25, 0xbe,
  0xbc, 0xf6, 0xa7, 0xbe, 0xcb, 0x32, 0x38, 0xbd, 0x20, 0x1b, 0x60, 0xbe,
  0x44, 0xe6, 0x70, 0xbd, 0x1c, 0x65, 0x59, 0xbb, 0x36, 0x20, 0x63, 0xbb,
  0xcc, 0x14, 0x69, 0x3e, 0x12, 0x6e, 0xd1, 0x3e, 0xeb, 0xfd, 0x46, 0x3e,
  0x8e, 0xd6, 0x78, 0x3d, 0x2a, 0xe0, 0xee, 0xbc, 0x64, 0xcd, 0xae, 0xbe,
  0xe9, 0xd8, 0x6a, 0xbe, 0x67, 0x3a, 0xbe, 0x3d, 0xf3, 0x61, 0x98, 0xbe,
  0x26, 0xfc, 0xcc, 0xbc, 0x84, 0xb7, 0xda, 0xbe, 0x58, 0x7e, 0x6f, 0xbd,
  0xa5, 0xf0, 0xb2, 0xbe, 0xb1, 0x75, 0xa5, 0xbc, 0xb1, 0x81, 0x37, 0xbc,
  0x04, 0x15, 0xdb, 0x3d, 0xc7, 0xdb, 0xca, 0xbd, 0xf5, 0x6c, 0xff, 0x3d,
  0x59, 0x21, 0x84, 0x3e, 0xb5, 0xe5, 0x7b, 0xbd, 0xf5, 0x28, 0x3d, 0x3e,
  0x9f, 0x38, 0xaf, 0xbd, 0x96, 0x79, 0xcd, 0xbe, 0x0f, 0x09, 0x97, 0xbe,
  0xd6, 0x12, 0xdb, 0xbe, 0xe0, 0x49, 0x21, 0x3d, 0x5e, 0x88, 0x39, 0x3e,
  0x45, 0xcd, 0x01, 0xbd, 0x62, 0xa4, 0x26, 0x3d, 0x59, 0xcc, 0x2e, 0x3c,
  0xe4, 0x57, 0xa7, 0xba, 0x57, 0xd3, 0x06, 0xbe, 0x51, 0xf2, 0xe4, 0xbd,
  0xd1, 0x7a, 0x7b, 0x3e, 0xae, 0x73, 0x5a, 0x3e, 0x8b, 0x19, 0xc6, 0xbd,
  0x9f, 0x35, 0x84, 0x3e, 0xe0, 0x97, 0x9c, 0xbe, 0x7f, 0xeb, 0x4f, 0x3e,
  0x90, 0x6d, 0x45, 0x3e, 0x02, 0x06, 0x90, 0x3e, 0x98, 0x26, 0x58, 0x3c,
  0x7b, 0x01, 0x7a, 0xbe, 0x90, 0x89, 0xba, 0xbd, 0xa4, 0xa3, 0x97, 0xbe,
  0xa8, 0x22, 0x2a, 0xbe, 0x74, 0xf9, 0x01, 0xbd, 0x01, 0x94, 0xfd, 0xbd,
  0xad, 0xf8, 0x07, 0xbf, 0xec, 0x95, 0xa8, 0xbd, 0xb5, 0x8c, 0x9f, 0xbd,
  0xa8, 0xee, 0x17, 0xbd, 0xea, 0xad, 0x38, 0x3c, 0x14, 0x3a, 0xc0, 0x3d,
  0xeb, 0xa7, 0xe9, 0x3c, 0xba, 0x79, 0x97, 0xbc, 0x0b, 0x67, 0x45, 0xbe,
  0x59, 0x15, 0xe4, 0x3d, 0x03, 0x83, 0xac, 0xbe, 0xf7, 0xfd, 0xbb, 0xbc,
  0xd3, 0x41, 0x47, 0xbe, 0x7e, 0xc2, 0xd5, 0xbd, 0xf5, 0xec, 0xab, 0xbb,
  0x01, 0xd6, 0x38, 0xbe, 0xb1, 0xc8, 0x31, 0xbe, 0xeb, 0x87, 0x0f, 0xbe,
  0xfa, 0x57, 0x67, 0xbd, 0x03, 0x13, 0xfa, 0xbb, 0xb0, 0x7f, 0x58, 0x3d,
  0xaf, 0x2f, 0x90, 0x3d, 0x68, 0x77, 0xd3, 0xbd, 0xc6, 0xbe, 0xb6, 0xbd,
  0xae, 0xc2, 0x4a, 0xbe, 0x34, 0x91, 0xb2, 0x3d, 0x40, 0x03, 0xc8, 0xbe,
  0x78, 0x9b, 0x3b, 0xbd, 0x74, 0x59, 0x95, 0xbe, 0xbb, 0x9d, 0x07, 0xbd,
  0xcb, 0x50, 0x53, 0x3c, 0xfd, 0x46, 0x3f, 0x3c, 0x00, 0x48, 0x0c, 0xbe,
  0x30, 0xa5, 0xf4, 0xbd, 0x67, 0x01, 0x09, 0xba, 0xf9, 0xd5, 0xc2, 0x3d,
  0x40, 0x39, 0x44, 0x3e, 0x88, 0x90, 0x43, 0x3d, 0x7f, 0x75, 0x68, 0xbd,
  0x5f, 0xd3, 0xfc, 0x3c, 0xd0, 0x09, 0x82, 0xbd, 0x3c, 0x94, 0x41, 0x3d,
  0x61, 0x65, 0x0a, 0xbe, 0x12, 0xc0, 0x04, 0xbe, 0xd7, 0xaa, 0x10, 0xbe,
  0x65, 0x23, 0x85, 0xbd, 0xe0, 0x16, 0x5c, 0x3b, 0xe6, 0x6a, 0x58, 0xbd,
  0xfb, 0xbd, 0x5c, 0xbd, 0x5f, 0xbe, 0x73, 0xbe, 0x79, 0x6d, 0xea, 0xbd,
  0xb9, 0x3c, 0xfe, 0x3d, 0xdf, 0x56, 0x24, 0x3c, 0xf6, 0x18, 0x7f, 0x3d,
  0x91, 0x01, 0x9b, 0xbd, 0x9c, 0x71, 0x5b, 0xbd, 0xf2, 0x95, 0x7e, 0x3e,
  0x3b, 0xed, 0xa5, 0x3d, 0x76, 0x07, 0x8d, 0xbe, 0x02, 0x40, 0xb2, 0xbd,
  0x76, 0xcc, 0x44, 0xbd, 0xbc, 0xc5, 0x0f, 0xbd, 0x90, 0x10, 0x03, 0x3d,
  0xd8, 0x67, 0x01, 0x3a, 0xe4, 0x04, 0x0d, 0xbd, 0xdb, 0x73, 0xcc, 0xbd,
  0x77, 0xe6, 0xce, 0xbd, 0x3a, 0x02, 0x68, 0x3d, 0x4f, 0x0a, 0x90, 0x3d,
  0x2a, 0x15, 0x8e, 0x3d, 0xff, 0xe4, 0x3c, 0x3d, 0xb2, 0x09, 0xb0, 0x3d,
  0xfb, 0x63, 0x8e, 0x3e, 0xe5, 0x64, 0x3d, 0x3d, 0x34, 0xde, 0x14, 0xbe,
  0xe0, 0x0a, 0x96, 0xbc, 0xe7, 0xab, 0xca, 0xbd, 0x25, 0x3f, 0x02, 0xbd,
  0xfe, 0x08, 0x39, 0x3c, 0xef, 0x94, 0x00, 0xbe, 0x37, 0xd6, 0x8a, 0xbe,
  0x74, 0x87, 0x0c, 0xbc, 0xf9, 0xf6, 0x32, 0xbd, 0x49, 0xd4, 0x6f, 0x3d,
  0xfa, 0x5f, 0x05, 0xbe, 0x7b, 0x91, 0xa6, 0x3d, 0x8a, 0x90, 0xa0, 0x3e,
  0x33, 0x39, 0x9f, 0x3e, 0x8c, 0x7e, 0xb7, 0x3e, 0x35, 0x3b, 0x86, 0x3d,
  0x85, 0xf3, 0xef, 0xbd, 0x6f, 0xcc, 0xed, 0xbd, 0x27, 0x27, 0x90, 0xbd,
  0xd3, 0x2c, 0x0d, 0xbe, 0x48, 0xbb, 0xbd, 0xbc, 0xff, 0xcd, 0x08, 0xbd,
  0xd5, 0x59, 0x14, 0xbd, 0x54, 0x48, 0xfc, 0x3c, 0xae, 0xc8, 0x1d, 0xbe,
  0x23, 0x7e, 0x4d, 0x3d, 0x9b, 0x79, 0x2e, 0xbd, 0x1c, 0xf3, 0xa7, 0x3d,
  0xb6, 0xfd, 0xb9, 0x3d, 0xb7, 0xa2, 0x84, 0xbd, 0x2a, 0x36, 0x49, 0xbe,
  0xa7, 0xf9, 0x55, 0xbe, 0x02, 0x42, 0xbf, 0x3c, 0xf4, 0xb0, 0x5f, 0x3d,
  0x08, 0xb4, 0x9a, 0x3d, 0xb0, 0x4e, 0x5c, 0xbe, 0x6e, 0x58, 0x35, 0xbe,
  0x0a, 0x46, 0xff, 0xbd, 0xa0, 0x06, 0x6e, 0xbe, 0x83, 0x4c, 0xc8, 0xbd,
  0x70, 0xf3, 0xc4, 0x3d, 0xba, 0x6f, 0xdf, 0xbc, 0x36, 0xe4, 0x17, 0x3e,
  0x91, 0xc6, 0x41, 0xbe, 0x53, 0xd8, 0x8c, 0xbd, 0x2f, 0x1e, 0x50, 0xbe,
  0xf4, 0x27, 0x7a, 0xbe, 0x44, 0x66, 0xbc, 0x3d, 0x79, 0x96, 0x99, 0xbe,
  0xed, 0x58, 0x4d, 0xbe, 0x9d, 0x3d, 0x2e, 0xbe, 0xa1, 0xd8, 0xc4, 0xbe,
  0xcf, 0xd6, 0x56, 0xbe, 0xcd, 0x70, 0xf1, 0x3d, 0x2a, 0x3f, 0xd4, 0xbd,
  0xe9, 0x8a, 0x65, 0xbe, 0xf9, 0x4e, 0xd8, 0xbc, 0x99, 0x8c, 0xfa, 0xbd,
  0x82, 0xe5, 0xc0, 0xbd, 0xed, 0x92, 0x63, 0x3d, 0x60, 0x7f, 0x17, 0x3e,
  0x10, 0x6c, 0x6f, 0xbe, 0x15, 0x95, 0xb6, 0xbd, 0xbd, 0x43, 0x54, 0xbd,
  0x60, 0xc6, 0x1e, 0xbd, 0xcc, 0xd3, 0x8b, 0xbb, 0x1d, 0xa4, 0x8b, 0x3d,
  0x77, 0xee, 0xba, 0xbd, 0x3b, 0x25, 0xbd, 0xbe, 0xc8, 0x01, 0xcd, 0xbd,
  0x13, 0x2d, 0x41, 0x3d, 0x31, 0x6f, 0xc5, 0x3c, 0x77, 0xc2, 0x2d, 0x3e,
  0x12, 0xa8, 0x1f, 0x3d, 0xea, 0xa4, 0xb5, 0x3d, 0x1a, 0x16, 0x1e, 0x3e,
  0x10, 0xe5, 0x2f, 0xbe, 0x78, 0xf5, 0xbb, 0x3d, 0x19, 0x17, 0x7a, 0x3d,
  0x96, 0x81, 0x03, 0x3e, 0x8f, 0x31, 0x65, 0xbe, 0xe3, 0xa3, 0x2e, 0xbe,
  0x83, 0xec, 0x32, 0xbe, 0x6b, 0xcd, 0xa6, 0xbe, 0xe5, 0xbf, 0xf2, 0xbd,
  0x37, 0xb6, 0xfa, 0x3d, 0x31, 0x37, 0xd1, 0xbc, 0xa0, 0x0d, 0xa7, 0xbd,
  0xa1, 0x5e, 0xbb, 0xbd, 0x93, 0x56, 0x9b, 0x3c, 0xce, 0x15, 0xf7, 0xbc,
  0x53, 0x79, 0x82, 0xbd, 0x66, 0x8d, 0x5d, 0xbe, 0x4f, 0x28, 0x31, 0xbc,
  0xcd, 0xa6, 0xe1, 0x3d, 0xe7, 0x84, 0x22, 0xbe, 0x55, 0xa0, 0x98, 0xbe,
  0xc5, 0xe3, 0x49, 0xbe, 0xa0, 0x7f, 0xda, 0x3c, 0x5e, 0x8e, 0x93, 0xbe,
  0x09, 0xcd, 0x81, 0xbe, 0xc0, 0x7b, 0xb5, 0x3d, 0xaa, 0xe0, 0xc2, 0xbc,
  0x45, 0x45, 0x34, 0xbe, 0xac, 0xd2, 0x3c, 0x3c, 0xa2, 0x92, 0x15, 0xbe,
  0xc9, 0x2a, 0x39, 0x3e, 0x1b, 0x85, 0x0a, 0x3e, 0x15, 0x16, 0xc7, 0xbc,
  0x5a, 0x7f, 0x32, 0xbe, 0x29, 0x6b, 0x69, 0xbd, 0x27, 0xd1, 0x5f, 0xbe,
  0x81, 0x9e, 0x8e, 0xbe, 0xce, 0x8e, 0x90, 0xbc, 0xfb, 0x8c, 0xaa, 0xbd,
  0x54, 0x66, 0x32, 0xbe, 0x62, 0x7f, 0x84, 0xbe, 0xc7, 0xdc, 0x03, 0xbd,
  0xca, 0xce, 0xb5, 0x3d, 0x2f, 0x4e, 0x27, 0x3d, 0x4a, 0x21, 0x0b, 0x3e,
  0x98, 0xfc, 0x0c, 0x3e, 0xec, 0xbe, 0x54, 0xbe, 0x7e, 0xee, 0x70, 0x3d,
  0xb1, 0x72, 0x1c, 0x3e, 0x9b, 0x22, 0x91, 0xbd, 0xeb, 0xf1, 0xdb, 0x3d,
  0x46, 0xf6, 0xe4, 0x3d, 0xa8, 0x09, 0x43, 0xbc, 0xa5, 0x0f, 0x05, 0xbe,
  0x73, 0xdd, 0x76, 0xbd, 0x42, 0x78, 0x4a, 0xbe, 0xc6, 0xff, 0x3e, 0xbe,
  0x2a, 0x05, 0x87, 0x3d, 0xb3, 0xf7, 0x9f, 0xbd, 0x5b, 0x1c, 0xda, 0xbd,
  0x38, 0x10, 0x2a, 0xbd, 0xf2, 0x52, 0x63, 0xbe, 0x5f, 0xe3, 0x4e, 0xbe,
  0xdf, 0xdf, 0xc8, 0x3d, 0xa4, 0x32, 0x50, 0x3e, 0x38, 0x90, 0xea, 0x3e,
  0xe0, 0x0b, 0x4b, 0x3e, 0x02, 0xa7, 0xfd, 0xbe, 0x3b, 0x5e, 0x62, 0xbe,
  0xe4, 0x24, 0xbf, 0xbc, 0x41, 0xc2, 0xdd, 0xbe, 0xe2, 0xb1, 0x17, 0xbe,
  0x4f, 0xa9, 0xa1, 0xbd, 0x9f, 0x3a, 0x14, 0xbf, 0xc2, 0x32, 0xce, 0xbe,
  0x0f, 0x94, 0xd4, 0xbb, 0x23, 0x68, 0x59, 0x3d, 0xad, 0xbe, 0x13, 0xbf,
  0x37, 0x55, 0xe1, 0xbd, 0x84, 0x5f, 0xbc, 0x3d, 0xfe, 0x8b, 0x9d, 0x3d,
  0x40, 0xa9, 0x28, 0x3c, 0x18, 0xbf, 0x60, 0xbe, 0xac, 0xf1, 0x86, 0x3e,
  0x11, 0xa9, 0xe8, 0xbd, 0x78, 0x38, 0xcd, 0xbe, 0x9a, 0xf2, 0x5e, 0xbe,
  0x85, 0x2d, 0xb0, 0x3c, 0x33, 0x29, 0xdc, 0xbc, 0x5f, 0x50, 0xb5, 0xbd,
  0x67, 0x68, 0x84, 0xbe, 0x58, 0x6c, 0xc6, 0x3c, 0x2e, 0x0a, 0x8e, 0x3d,
  0x96, 0x23, 0x3d, 0x3e, 0x7a, 0x97, 0x72, 0xbe, 0x5a, 0x48, 0x51, 0x3d,
  0x28, 0xf5, 0xd5, 0xbd, 0xd6, 0x75, 0x98, 0xbe, 0x14, 0x6a, 0x77, 0xbe,
  0xed, 0xa6, 0x0b, 0xbc, 0xc3, 0x6d, 0x2f, 0xbd, 0xaf, 0xcc, 0x97, 0xbe,
  0xdc, 0x06, 0xab, 0xbe, 0xfd, 0x34, 0x1a, 0xbc, 0x5d, 0x84, 0x0b, 0xbd,
  0x8a, 0x97, 0x2e, 0xbe, 0x82, 0x81, 0x46, 0xbe, 0x7a, 0x03, 0xe8, 0xbd,
  0xd9, 0xce, 0xe6, 0xbc, 0xed, 0x87, 0x9e, 0x3d, 0x5d, 0xe5, 0x19, 0x3e,
  0xfe, 0xfe, 0xb6, 0xbd, 0x50, 0xfd, 0x7d, 0x3c, 0xcc, 0xdd, 0x3e, 0xbc,
  0x0b, 0x0a, 0x4d, 0xbd, 0x2d, 0x2f, 0x60, 0xbc, 0x85, 0xf4, 0xbc, 0xbd,
  0xa3, 0x50, 0x71, 0xbe, 0x95, 0x70, 0x83, 0xbe, 0xf7, 0xff, 0xa0, 0x3c,
  0xfa, 0x55, 0x78, 0x3a, 0x13, 0x08, 0x9b, 0xbe, 0x28, 0x41, 0x94, 0xbe,
  0x68, 0xac, 0x6e, 0x3c, 0x3c, 0x3f, 0x16, 0xbe, 0x8e, 0xc6, 0x99, 0x3d,
  0xb5, 0x45, 0x19, 0xbe, 0xb3, 0x77, 0x62, 0x3d, 0xa3, 0x17, 0xe6, 0x3c,
  0xf3, 0xb3, 0x86, 0x3d, 0x8d, 0x78, 0x6f, 0x3e, 0x2b, 0xfa, 0x8d, 0xbd,
  0x56, 0xf0, 0xcb, 0xbe, 0x6c, 0xfb, 0xfb, 0xbd, 0x74, 0x27, 0x84, 0xbd,
  0xe5, 0x2f, 0x3b, 0xbb, 0xbf, 0x2a, 0x5c, 0x3c, 0x03, 0xd8, 0x70, 0xbe,
  0xaa, 0x24, 0x8a, 0xbd, 0xad, 0x80, 0xa7, 0xbd, 0x21, 0x66, 0x24, 0xbe,
  0x7e, 0x3e, 0x0d, 0x3e, 0x48, 0xda, 0xb1, 0xbd, 0xb2, 0x14, 0xe7, 0x3d,
  0xca, 0xb2, 0x1b, 0x3e, 0x6c, 0x48, 0x8b, 0x3c, 0x1e, 0x9b, 0xe5, 0x3e,
  0xa1, 0x3a, 0xbb, 0xbd, 0x91, 0x71, 0xb2, 0xbe, 0x7e, 0x4d, 0x0b, 0x3d,
  0x98, 0xe4, 0x0b, 0xbe, 0x7a, 0xb2, 0xa4, 0xbd, 0xb3, 0x7e, 0x80, 0xbc,
  0x22, 0xd2, 0x94, 0xbe, 0x72, 0x9d, 0x05, 0xbe, 0x00, 0xe0, 0x2b, 0x3e,
  0x0a, 0x6a, 0x0f, 0xbe, 0xaf, 0xe5, 0xb4, 0x3c, 0x36, 0xdb, 0x0d, 0x3e,
  0xa3, 0x92, 0x34, 0x3d, 0xc9, 0x64, 0xc5, 0x3e, 0x37, 0xe9, 0xe7, 0x3e,
  0xfb, 0xbf, 0x06, 0x3f, 0x68, 0x26, 0x8f, 0x3e, 0x07, 0xb2, 0x4a, 0xbe,
  0xb6, 0x80, 0x82, 0xbc, 0x61, 0x2f, 0xe9, 0x3d, 0x4b, 0xce, 0x9c, 0xbd,
  0x9f, 0x2b, 0xc6, 0x3b, 0x5d, 0x40, 0xf9, 0xbd, 0x63, 0xe1, 0xaa, 0x3b,
  0xf7, 0x39, 0x93, 0xbc, 0x6c, 0xd2, 0xbb, 0xbe, 0xd2, 0x19, 0xd2, 0x3d,
  0x72, 0x4c, 0x00, 0x3e, 0x6a, 0x3b, 0x4c, 0x3d, 0x4a, 0xfe, 0xff, 0xff,
  0x10, 0x00, 0x00, 0x00, 0x05, 0x00, 0x00, 0x00, 0x14, 0x00, 0x00, 0x00,
  0x2c, 0x00, 0x00, 0x00, 0x02, 0x00, 0x00, 0x00, 0x10, 0x00, 0x00, 0x00,
  0x70, 0x00, 0x00, 0x00, 0x17, 0x00, 0x00, 0x00, 0x73, 0x65, 0x71, 0x75,
  0x65, 0x6e, 0x74, 0x69, 0x61, 0x6c, 0x2f, 0x64, 0x65, 0x6e, 0x73, 0x65,
  0x2f, 0x4d, 0x61, 0x74, 0x4d, 0x75, 0x6c, 0x00, 0x38, 0xfe, 0xff, 0xff,
  0x2e, 0xff, 0xff, 0xff, 0x04, 0x00, 0x00, 0x00, 0x08, 0x00, 0x00, 0x00,
  0xff, 0xff, 0xff, 0xff, 0x70, 0x00, 0x00, 0x00, 0x00, 0x00, 0x0e, 0x00,
  0x18, 0x00, 0x08, 0x00, 0x07, 0x00, 0x0c, 0x00, 0x10, 0x00, 0x14, 0x00,
  0x0e, 0x00, 0x00, 0x00, 0x00, 0x00, 0x00, 0x02, 0x10, 0x00, 0x00, 0x00,
  0x04, 0x00, 0x00, 0x00, 0x10, 0x00, 0x00, 0x00, 0x2c, 0x00, 0x00, 0x00,
  0x01, 0x00, 0x00, 0x00, 0x02, 0x00, 0x00, 0x00, 0x18, 0x00, 0x00, 0x00,
  0x73, 0x65, 0x71, 0x75, 0x65, 0x6e, 0x74, 0x69, 0x61, 0x6c, 0x2f, 0x66,
  0x6c, 0x61, 0x74, 0x74, 0x65, 0x6e, 0x2f, 0x43, 0x6f, 0x6e, 0x73, 0x74,
  0x00, 0x00, 0x00, 0x00, 0xa0, 0xfe, 0xff, 0xff, 0x96, 0xff, 0xff, 0xff,
  0x04, 0x00, 0x00, 0x00, 0x0c, 0x00, 0x00, 0x00, 0x83, 0x43, 0x9a, 0xbf,
  0x9c, 0xfc, 0xcc, 0xbf, 0x39, 0x74, 0xd4, 0x3f, 0x0a, 0xff, 0xff, 0xff,
  0x10, 0x00, 0x00, 0x00, 0x03, 0x00, 0x00, 0x00, 0x10, 0x00, 0x00, 0x00,
  0x3c, 0x00, 0x00, 0x00, 0x01, 0x00, 0x00, 0x00, 0x03, 0x00, 0x00, 0x00,
  0x29, 0x00, 0x00, 0x00, 0x73, 0x65, 0x71, 0x75, 0x65, 0x6e, 0x74, 0x69,
  0x61, 0x6c, 0x2f, 0x64, 0x65, 0x6e, 0x73, 0x65, 0x5f, 0x31, 0x2f, 0x42,
  0x69, 0x61, 0x73, 0x41, 0x64, 0x64, 0x2f, 0x52, 0x65, 0x61, 0x64, 0x56,
  0x61, 0x72, 0x69, 0x61, 0x62, 0x6c, 0x65, 0x4f, 0x70, 0x00, 0x00, 0x00,
  0x60, 0xff, 0xff, 0xff, 0x00, 0x00, 0x06, 0x00, 0x08, 0x00, 0x04, 0x00,
  0x06, 0x00, 0x00, 0x00, 0x04, 0x00, 0x00, 0x00, 0x40, 0x00, 0x00, 0x00,
  0xd7, 0x82, 0x88, 0xbe, 0xbd, 0xfe, 0xa1, 0xbe, 0x2a, 0x51, 0x3e, 0xbf,
  0x96, 0x6b, 0xd7, 0x3e, 0x82, 0xff, 0x86, 0xbe, 0x91, 0xe2, 0x96, 0x3f,
  0x2f, 0xd6, 0x0e, 0x3f, 0x3b, 0xb1, 0x7f, 0xbc, 0x12, 0xf7, 0xd8, 0x3f,
  0x7a, 0x4c, 0xb5, 0x3e, 0xb2, 0xaf, 0x08, 0xbf, 0x9c, 0x21, 0xe6, 0x3f,
  0x15, 0x2d, 0x30, 0x3f, 0x2f, 0x9d, 0x9c, 0x3e, 0x79, 0xd3, 0xae, 0xbe,
  0xf7, 0x10, 0x68, 0xbf, 0xae, 0xff, 0xff, 0xff, 0x10, 0x00, 0x00, 0x00,
  0x02, 0x00, 0x00, 0x00, 0x10, 0x00, 0x00, 0x00, 0x3c, 0x00, 0x00, 0x00,
  0x01, 0x00, 0x00, 0x00, 0x10, 0x00, 0x00, 0x00, 0x27, 0x00, 0x00, 0x00,
  0x73, 0x65, 0x71, 0x75, 0x65, 0x6e, 0x74, 0x69, 0x61, 0x6c, 0x2f, 0x64,
  0x65, 0x6e, 0x73, 0x65, 0x2f, 0x42, 0x69, 0x61, 0x73, 0x41, 0x64, 0x64,
  0x2f, 0x52, 0x65, 0x61, 0x64, 0x56, 0x61, 0x72, 0x69, 0x61, 0x62, 0x6c,
  0x65, 0x4f, 0x70, 0x00, 0x04, 0x00, 0x06, 0x00, 0x04, 0x00, 0x00, 0x00,
  0x00, 0x00, 0x0e, 0x00, 0x14, 0x00, 0x04, 0x00, 0x00, 0x00, 0x08, 0x00,
  0x0c, 0x00, 0x10, 0x00, 0x0e, 0x00, 0x00, 0x00, 0x10, 0x00, 0x00, 0x00,
  0x01, 0x00, 0x00, 0x00, 0x1c, 0x00, 0x00, 0x00, 0x2c, 0x00, 0x00, 0x00,
  0x04, 0x00, 0x00, 0x00, 0x01, 0x00, 0x00, 0x00, 0x40, 0x00, 0x00, 0x00,
  0x03, 0x00, 0x00, 0x00, 0x01, 0x00, 0x00, 0x00, 0x0c, 0x00, 0x00, 0x00,
  0x63, 0x6f, 0x6e, 0x76, 0x32, 0x64, 0x5f, 0x69, 0x6e, 0x70, 0x75, 0x74,
  0x00, 0x00, 0x00, 0x00, 0xfc, 0xff, 0xff, 0xff, 0x04, 0x00, 0x04, 0x00,
  0x04, 0x00, 0x00, 0x00
};
unsigned int _content_midterm_model_model_tflite_len = 12316;
